{
  "version": "1.0",
  "truncation": null,
  "padding": null,
  "added_tokens": [
    {
      "id": 0,
      "content": "[BOS]",
      "single_word": false,
      "lstrip": false,
      "rstrip": false,
      "normalized": false,
      "special": true
    },
    {
      "id": 1,
      "content": "[EOS]",
      "single_word": false,
      "lstrip": false,
      "rstrip": false,
      "normalized": false,
      "special": true
    },
    {
      "id": 2,
      "content": "[MASK]",
      "single_word": false,
      "lstrip": false,
      "rstrip": false,
      "normalized": false,
      "special": true
    },
    {
      "id": 3,
      "content": "[PAD]",
      "single_word": false,
      "lstrip": false,
      "rstrip": false,
      "normalized": false,
      "special": true
    },
    {
      "id": 4,
      "content": "[UNK]",
      "single_word": false,
      "lstrip": false,
      "rstrip": false,
      "normalized": false,
      "special": true
    },
    {
      "id": 5,
      "content": "[CLS]",
      "single_word": false,
      "lstrip": false,
      "rstrip": false,
      "normalized": false,
      "special": true
    },
    {
      "id": 6,
      "content": "[SEP]",
      "single_word": false,
      "lstrip": false,
      "rstrip": false,
      "normalized": false,
      "special": true
    },
    {
      "id": 7,
      "content": "[COMP]",
      "single_word": false,
      "lstrip": false,
      "rstrip": false,
      "normalized": false,
      "special": true
    },
    {
      "id": 8,
      "content": "[BRAND]",
      "single_word": false,
      "lstrip": false,
      "rstrip": false,
      "normalized": false,
      "special": true
    },
    {
      "id": 9,
      "content": "[NAME]",
      "single_word": false,
      "lstrip": false,
      "rstrip": false,
      "normalized": false,
      "special": true
    },
    {
      "id": 10,
      "content": "[CAT]",
      "single_word": false,
      "lstrip": false,
      "rstrip": false,
      "normalized": false,
      "special": true
    },
    {
      "id": 11,
      "content": "[KEY]",
      "single_word": false,
      "lstrip": false,
      "rstrip": false,
      "normalized": false,
      "special": true
    },
    {
      "id": 12,
      "content": "[COPY]",
      "single_word": false,
      "lstrip": false,
      "rstrip": false,
      "normalized": false,
      "special": true
    },
    {
      "id": 13,
      "content": "[UNUSED6]",
      "single_word": false,
      "lstrip": false,
      "rstrip": false,
      "normalized": false,
      "special": true
    },
    {
      "id": 14,
      "content": "[UNUSED7]",
      "single_word": false,
      "lstrip": false,
      "rstrip": false,
      "normalized": false,
      "special": true
    },
    {
      "id": 15,
      "content": "[UNUSED8]",
      "single_word": false,
      "lstrip": false,
      "rstrip": false,
      "normalized": false,
      "special": true
    },
    {
      "id": 16,
      "content": "[UNUSED9]",
      "single_word": false,
      "lstrip": false,
      "rstrip": false,
      "normalized": false,
      "special": true
    },
    {
      "id": 17,
      "content": "[UNUSED10]",
      "single_word": false,
      "lstrip": false,
      "rstrip": false,
      "normalized": false,
      "special": true
    },
    {
      "id": 18,
      "content": "[UNUSED11]",
      "single_word": false,
      "lstrip": false,
      "rstrip": false,
      "normalized": false,
      "special": true
    },
    {
      "id": 19,
      "content": "[UNUSED12]",
      "single_word": false,
      "lstrip": false,
      "rstrip": false,
      "normalized": false,
      "special": true
    },
    {
      "id": 20,
      "content": "[UNUSED13]",
      "single_word": false,
      "lstrip": false,
      "rstrip": false,
      "normalized": false,
      "special": true
    },
    {
      "id": 21,
      "content": "[UNUSED14]",
      "single_word": false,
      "lstrip": false,
      "rstrip": false,
      "normalized": false,
      "special": true
    },
    {
      "id": 22,
      "content": "[UNUSED15]",
      "single_word": false,
      "lstrip": false,
      "rstrip": false,
      "normalized": false,
      "special": true
    },
    {
      "id": 23,
      "content": "[UNUSED16]",
      "single_word": false,
      "lstrip": false,
      "rstrip": false,
      "normalized": false,
      "special": true
    },
    {
      "id": 24,
      "content": "[UNUSED17]",
      "single_word": false,
      "lstrip": false,
      "rstrip": false,
      "normalized": false,
      "special": true
    },
    {
      "id": 25,
      "content": "[UNUSED18]",
      "single_word": false,
      "lstrip": false,
      "rstrip": false,
      "normalized": false,
      "special": true
    },
    {
      "id": 26,
      "content": "[UNUSED19]",
      "single_word": false,
      "lstrip": false,
      "rstrip": false,
      "normalized": false,
      "special": true
    },
    {
      "id": 27,
      "content": "[UNUSED20]",
      "single_word": false,
      "lstrip": false,
      "rstrip": false,
      "normalized": false,
      "special": true
    },
    {
      "id": 28,
      "content": "[UNUSED21]",
      "single_word": false,
      "lstrip": false,
      "rstrip": false,
      "normalized": false,
      "special": true
    },
    {
      "id": 29,
      "content": "[UNUSED22]",
      "single_word": false,
      "lstrip": false,
      "rstrip": false,
      "normalized": false,
      "special": true
    },
    {
      "id": 30,
      "content": "[UNUSED23]",
      "single_word": false,
      "lstrip": false,
      "rstrip": false,
      "normalized": false,
      "special": true
    },
    {
      "id": 31,
      "content": "[UNUSED24]",
      "single_word": false,
      "lstrip": false,
      "rstrip": false,
      "normalized": false,
      "special": true
    },
    {
      "id": 32,
      "content": "[UNUSED25]",
      "single_word": false,
      "lstrip": false,
      "rstrip": false,
      "normalized": false,
      "special": true
    },
    {
      "id": 33,
      "content": "[UNUSED26]",
      "single_word": false,
      "lstrip": false,
      "rstrip": false,
      "normalized": false,
      "special": true
    },
    {
      "id": 34,
      "content": "[UNUSED27]",
      "single_word": false,
      "lstrip": false,
      "rstrip": false,
      "normalized": false,
      "special": true
    },
    {
      "id": 35,
      "content": "[UNUSED28]",
      "single_word": false,
      "lstrip": false,
      "rstrip": false,
      "normalized": false,
      "special": true
    },
    {
      "id": 36,
      "content": "[UNUSED29]",
      "single_word": false,
      "lstrip": false,
      "rstrip": false,
      "normalized": false,
      "special": true
    },
    {
      "id": 37,
      "content": "[UNUSED30]",
      "single_word": false,
      "lstrip": false,
      "rstrip": false,
      "normalized": false,
      "special": true
    },
    {
      "id": 38,
      "content": "[UNUSED31]",
      "single_word": false,
      "lstrip": false,
      "rstrip": false,
      "normalized": false,
      "special": true
    },
    {
      "id": 39,
      "content": "[UNUSED32]",
      "single_word": false,
      "lstrip": false,
      "rstrip": false,
      "normalized": false,
      "special": true
    },
    {
      "id": 40,
      "content": "[UNUSED33]",
      "single_word": false,
      "lstrip": false,
      "rstrip": false,
      "normalized": false,
      "special": true
    },
    {
      "id": 41,
      "content": "[UNUSED34]",
      "single_word": false,
      "lstrip": false,
      "rstrip": false,
      "normalized": false,
      "special": true
    },
    {
      "id": 42,
      "content": "[UNUSED35]",
      "single_word": false,
      "lstrip": false,
      "rstrip": false,
      "normalized": false,
      "special": true
    },
    {
      "id": 43,
      "content": "[UNUSED36]",
      "single_word": false,
      "lstrip": false,
      "rstrip": false,
      "normalized": false,
      "special": true
    },
    {
      "id": 44,
      "content": "[UNUSED37]",
      "single_word": false,
      "lstrip": false,
      "rstrip": false,
      "normalized": false,
      "special": true
    },
    {
      "id": 45,
      "content": "[UNUSED38]",
      "single_word": false,
      "lstrip": false,
      "rstrip": false,
      "normalized": false,
      "special": true
    },
    {
      "id": 46,
      "content": "[UNUSED39]",
      "single_word": false,
      "lstrip": false,
      "rstrip": false,
      "normalized": false,
      "special": true
    },
    {
      "id": 47,
      "content": "[UNUSED40]",
      "single_word": false,
      "lstrip": false,
      "rstrip": false,
      "normalized": false,
      "special": true
    },
    {
      "id": 48,
      "content": "[UNUSED41]",
      "single_word": false,
      "lstrip": false,
      "rstrip": false,
      "normalized": false,
      "special": true
    },
    {
      "id": 49,
      "content": "[UNUSED42]",
      "single_word": false,
      "lstrip": false,
      "rstrip": false,
      "normalized": false,
      "special": true
    },
    {
      "id": 50,
      "content": "[UNUSED43]",
      "single_word": false,
      "lstrip": false,
      "rstrip": false,
      "normalized": false,
      "special": true
    },
    {
      "id": 51,
      "content": "[UNUSED44]",
      "single_word": false,
      "lstrip": false,
      "rstrip": false,
      "normalized": false,
      "special": true
    },
    {
      "id": 52,
      "content": "[UNUSED45]",
      "single_word": false,
      "lstrip": false,
      "rstrip": false,
      "normalized": false,
      "special": true
    },
    {
      "id": 53,
      "content": "[UNUSED46]",
      "single_word": false,
      "lstrip": false,
      "rstrip": false,
      "normalized": false,
      "special": true
    },
    {
      "id": 54,
      "content": "[UNUSED47]",
      "single_word": false,
      "lstrip": false,
      "rstrip": false,
      "normalized": false,
      "special": true
    },
    {
      "id": 55,
      "content": "[UNUSED48]",
      "single_word": false,
      "lstrip": false,
      "rstrip": false,
      "normalized": false,
      "special": true
    },
    {
      "id": 56,
      "content": "[UNUSED49]",
      "single_word": false,
      "lstrip": false,
      "rstrip": false,
      "normalized": false,
      "special": true
    },
    {
      "id": 57,
      "content": "[UNUSED50]",
      "single_word": false,
      "lstrip": false,
      "rstrip": false,
      "normalized": false,
      "special": true
    },
    {
      "id": 58,
      "content": "[UNUSED51]",
      "single_word": false,
      "lstrip": false,
      "rstrip": false,
      "normalized": false,
      "special": true
    },
    {
      "id": 59,
      "content": "[UNUSED52]",
      "single_word": false,
      "lstrip": false,
      "rstrip": false,
      "normalized": false,
      "special": true
    },
    {
      "id": 60,
      "content": "[UNUSED53]",
      "single_word": false,
      "lstrip": false,
      "rstrip": false,
      "normalized": false,
      "special": true
    },
    {
      "id": 61,
      "content": "[UNUSED54]",
      "single_word": false,
      "lstrip": false,
      "rstrip": false,
      "normalized": false,
      "special": true
    },
    {
      "id": 62,
      "content": "[UNUSED55]",
      "single_word": false,
      "lstrip": false,
      "rstrip": false,
      "normalized": false,
      "special": true
    },
    {
      "id": 63,
      "content": "[UNUSED56]",
      "single_word": false,
      "lstrip": false,
      "rstrip": false,
      "normalized": false,
      "special": true
    },
    {
      "id": 64,
      "content": "[UNUSED57]",
      "single_word": false,
      "lstrip": false,
      "rstrip": false,
      "normalized": false,
      "special": true
    },
    {
      "id": 65,
      "content": "[UNUSED58]",
      "single_word": false,
      "lstrip": false,
      "rstrip": false,
      "normalized": false,
      "special": true
    },
    {
      "id": 66,
      "content": "[UNUSED59]",
      "single_word": false,
      "lstrip": false,
      "rstrip": false,
      "normalized": false,
      "special": true
    },
    {
      "id": 67,
      "content": "[UNUSED60]",
      "single_word": false,
      "lstrip": false,
      "rstrip": false,
      "normalized": false,
      "special": true
    },
    {
      "id": 68,
      "content": "[UNUSED61]",
      "single_word": false,
      "lstrip": false,
      "rstrip": false,
      "normalized": false,
      "special": true
    },
    {
      "id": 69,
      "content": "[UNUSED62]",
      "single_word": false,
      "lstrip": false,
      "rstrip": false,
      "normalized": false,
      "special": true
    },
    {
      "id": 70,
      "content": "[UNUSED63]",
      "single_word": false,
      "lstrip": false,
      "rstrip": false,
      "normalized": false,
      "special": true
    },
    {
      "id": 71,
      "content": "[UNUSED64]",
      "single_word": false,
      "lstrip": false,
      "rstrip": false,
      "normalized": false,
      "special": true
    },
    {
      "id": 72,
      "content": "[UNUSED65]",
      "single_word": false,
      "lstrip": false,
      "rstrip": false,
      "normalized": false,
      "special": true
    },
    {
      "id": 73,
      "content": "[UNUSED66]",
      "single_word": false,
      "lstrip": false,
      "rstrip": false,
      "normalized": false,
      "special": true
    },
    {
      "id": 74,
      "content": "[UNUSED67]",
      "single_word": false,
      "lstrip": false,
      "rstrip": false,
      "normalized": false,
      "special": true
    },
    {
      "id": 75,
      "content": "[UNUSED68]",
      "single_word": false,
      "lstrip": false,
      "rstrip": false,
      "normalized": false,
      "special": true
    },
    {
      "id": 76,
      "content": "[UNUSED69]",
      "single_word": false,
      "lstrip": false,
      "rstrip": false,
      "normalized": false,
      "special": true
    },
    {
      "id": 77,
      "content": "[UNUSED70]",
      "single_word": false,
      "lstrip": false,
      "rstrip": false,
      "normalized": false,
      "special": true
    },
    {
      "id": 78,
      "content": "[UNUSED71]",
      "single_word": false,
      "lstrip": false,
      "rstrip": false,
      "normalized": false,
      "special": true
    },
    {
      "id": 79,
      "content": "[UNUSED72]",
      "single_word": false,
      "lstrip": false,
      "rstrip": false,
      "normalized": false,
      "special": true
    },
    {
      "id": 80,
      "content": "[UNUSED73]",
      "single_word": false,
      "lstrip": false,
      "rstrip": false,
      "normalized": false,
      "special": true
    },
    {
      "id": 81,
      "content": "[UNUSED74]",
      "single_word": false,
      "lstrip": false,
      "rstrip": false,
      "normalized": false,
      "special": true
    },
    {
      "id": 82,
      "content": "[UNUSED75]",
      "single_word": false,
      "lstrip": false,
      "rstrip": false,
      "normalized": false,
      "special": true
    },
    {
      "id": 83,
      "content": "[UNUSED76]",
      "single_word": false,
      "lstrip": false,
      "rstrip": false,
      "normalized": false,
      "special": true
    },
    {
      "id": 84,
      "content": "[UNUSED77]",
      "single_word": false,
      "lstrip": false,
      "rstrip": false,
      "normalized": false,
      "special": true
    },
    {
      "id": 85,
      "content": "[UNUSED78]",
      "single_word": false,
      "lstrip": false,
      "rstrip": false,
      "normalized": false,
      "special": true
    },
    {
      "id": 86,
      "content": "[UNUSED79]",
      "single_word": false,
      "lstrip": false,
      "rstrip": false,
      "normalized": false,
      "special": true
    },
    {
      "id": 87,
      "content": "[UNUSED80]",
      "single_word": false,
      "lstrip": false,
      "rstrip": false,
      "normalized": false,
      "special": true
    },
    {
      "id": 88,
      "content": "[UNUSED81]",
      "single_word": false,
      "lstrip": false,
      "rstrip": false,
      "normalized": false,
      "special": true
    },
    {
      "id": 89,
      "content": "[UNUSED82]",
      "single_word": false,
      "lstrip": false,
      "rstrip": false,
      "normalized": false,
      "special": true
    },
    {
      "id": 90,
      "content": "[UNUSED83]",
      "single_word": false,
      "lstrip": false,
      "rstrip": false,
      "normalized": false,
      "special": true
    },
    {
      "id": 91,
      "content": "[UNUSED84]",
      "single_word": false,
      "lstrip": false,
      "rstrip": false,
      "normalized": false,
      "special": true
    },
    {
      "id": 92,
      "content": "[UNUSED85]",
      "single_word": false,
      "lstrip": false,
      "rstrip": false,
      "normalized": false,
      "special": true
    },
    {
      "id": 93,
      "content": "[UNUSED86]",
      "single_word": false,
      "lstrip": false,
      "rstrip": false,
      "normalized": false,
      "special": true
    },
    {
      "id": 94,
      "content": "[UNUSED87]",
      "single_word": false,
      "lstrip": false,
      "rstrip": false,
      "normalized": false,
      "special": true
    },
    {
      "id": 95,
      "content": "[UNUSED88]",
      "single_word": false,
      "lstrip": false,
      "rstrip": false,
      "normalized": false,
      "special": true
    },
    {
      "id": 96,
      "content": "[UNUSED89]",
      "single_word": false,
      "lstrip": false,
      "rstrip": false,
      "normalized": false,
      "special": true
    },
    {
      "id": 97,
      "content": "[UNUSED90]",
      "single_word": false,
      "lstrip": false,
      "rstrip": false,
      "normalized": false,
      "special": true
    },
    {
      "id": 98,
      "content": "[UNUSED91]",
      "single_word": false,
      "lstrip": false,
      "rstrip": false,
      "normalized": false,
      "special": true
    },
    {
      "id": 99,
      "content": "[UNUSED92]",
      "single_word": false,
      "lstrip": false,
      "rstrip": false,
      "normalized": false,
      "special": true
    },
    {
      "id": 100,
      "content": "[UNUSED93]",
      "single_word": false,
      "lstrip": false,
      "rstrip": false,
      "normalized": false,
      "special": true
    },
    {
      "id": 101,
      "content": "[UNUSED94]",
      "single_word": false,
      "lstrip": false,
      "rstrip": false,
      "normalized": false,
      "special": true
    },
    {
      "id": 102,
      "content": "[UNUSED95]",
      "single_word": false,
      "lstrip": false,
      "rstrip": false,
      "normalized": false,
      "special": true
    },
    {
      "id": 103,
      "content": "[UNUSED96]",
      "single_word": false,
      "lstrip": false,
      "rstrip": false,
      "normalized": false,
      "special": true
    },
    {
      "id": 104,
      "content": "[UNUSED97]",
      "single_word": false,
      "lstrip": false,
      "rstrip": false,
      "normalized": false,
      "special": true
    },
    {
      "id": 105,
      "content": "[UNUSED98]",
      "single_word": false,
      "lstrip": false,
      "rstrip": false,
      "normalized": false,
      "special": true
    },
    {
      "id": 106,
      "content": "[UNUSED99]",
      "single_word": false,
      "lstrip": false,
      "rstrip": false,
      "normalized": false,
      "special": true
    },
    {
      "id": 4497,
      "content": "^^",
      "single_word": false,
      "lstrip": false,
      "rstrip": false,
      "normalized": true,
      "special": false
    },
    {
      "id": 13125,
      "content": "BI",
      "single_word": false,
      "lstrip": false,
      "rstrip": false,
      "normalized": true,
      "special": false
    },
    {
      "id": 63733,
      "content": ":-)",
      "single_word": false,
      "lstrip": false,
      "rstrip": false,
      "normalized": true,
      "special": false
    },
    {
      "id": 63734,
      "content": ":)",
      "single_word": false,
      "lstrip": false,
      "rstrip": false,
      "normalized": true,
      "special": false
    },
    {
      "id": 63735,
      "content": "-)",
      "single_word": false,
      "lstrip": false,
      "rstrip": false,
      "normalized": true,
      "special": false
    },
    {
      "id": 63736,
      "content": "(-:",
      "single_word": false,
      "lstrip": false,
      "rstrip": false,
      "normalized": true,
      "special": false
    },
    {
      "id": 63737,
      "content": "(:-)",
      "single_word": false,
      "lstrip": false,
      "rstrip": false,
      "normalized": true,
      "special": false
    },
    {
      "id": 63738,
      "content": "(:-(",
      "single_word": false,
      "lstrip": false,
      "rstrip": false,
      "normalized": true,
      "special": false
    },
    {
      "id": 63739,
      "content": "-}",
      "single_word": false,
      "lstrip": false,
      "rstrip": false,
      "normalized": true,
      "special": false
    },
    {
      "id": 63740,
      "content": "8-O",
      "single_word": false,
      "lstrip": false,
      "rstrip": false,
      "normalized": true,
      "special": false
    },
    {
      "id": 63741,
      "content": "'-)",
      "single_word": false,
      "lstrip": false,
      "rstrip": false,
      "normalized": true,
      "special": false
    },
    {
      "id": 63742,
      "content": ":-#",
      "single_word": false,
      "lstrip": false,
      "rstrip": false,
      "normalized": true,
      "special": false
    },
    {
      "id": 63743,
      "content": ":-*",
      "single_word": false,
      "lstrip": false,
      "rstrip": false,
      "normalized": true,
      "special": false
    },
    {
      "id": 63744,
      "content": ":-/",
      "single_word": false,
      "lstrip": false,
      "rstrip": false,
      "normalized": true,
      "special": false
    },
    {
      "id": 63745,
      "content": ":->",
      "single_word": false,
      "lstrip": false,
      "rstrip": false,
      "normalized": true,
      "special": false
    },
    {
      "id": 63746,
      "content": ":-@",
      "single_word": false,
      "lstrip": false,
      "rstrip": false,
      "normalized": true,
      "special": false
    },
    {
      "id": 63747,
      "content": ":-d",
      "single_word": false,
      "lstrip": false,
      "rstrip": false,
      "normalized": true,
      "special": false
    },
    {
      "id": 63748,
      "content": ":-V",
      "single_word": false,
      "lstrip": false,
      "rstrip": false,
      "normalized": true,
      "special": false
    },
    {
      "id": 63749,
      "content": ":-X",
      "single_word": false,
      "lstrip": false,
      "rstrip": false,
      "normalized": true,
      "special": false
    },
    {
      "id": 63750,
      "content": ":-\\",
      "single_word": false,
      "lstrip": false,
      "rstrip": false,
      "normalized": true,
      "special": false
    },
    {
      "id": 63751,
      "content": ":-]",
      "single_word": false,
      "lstrip": false,
      "rstrip": false,
      "normalized": true,
      "special": false
    },
    {
      "id": 63752,
      "content": ";-(",
      "single_word": false,
      "lstrip": false,
      "rstrip": false,
      "normalized": true,
      "special": false
    },
    {
      "id": 63753,
      "content": ">;->",
      "single_word": false,
      "lstrip": false,
      "rstrip": false,
      "normalized": true,
      "special": false
    },
    {
      "id": 63754,
      "content": ";^)",
      "single_word": false,
      "lstrip": false,
      "rstrip": false,
      "normalized": true,
      "special": false
    },
    {
      "id": 63755,
      "content": "%-)",
      "single_word": false,
      "lstrip": false,
      "rstrip": false,
      "normalized": true,
      "special": false
    },
    {
      "id": 63756,
      "content": "):-(",
      "single_word": false,
      "lstrip": false,
      "rstrip": false,
      "normalized": true,
      "special": false
    },
    {
      "id": 63757,
      "content": "3:]",
      "single_word": false,
      "lstrip": false,
      "rstrip": false,
      "normalized": true,
      "special": false
    },
    {
      "id": 63758,
      "content": ":-&",
      "single_word": false,
      "lstrip": false,
      "rstrip": false,
      "normalized": true,
      "special": false
    },
    {
      "id": 63759,
      "content": "8:-)",
      "single_word": false,
      "lstrip": false,
      "rstrip": false,
      "normalized": true,
      "special": false
    },
    {
      "id": 63760,
      "content": ":-)8<",
      "single_word": false,
      "lstrip": false,
      "rstrip": false,
      "normalized": true,
      "special": false
    },
    {
      "id": 63761,
      "content": ":-O",
      "single_word": false,
      "lstrip": false,
      "rstrip": false,
      "normalized": true,
      "special": false
    },
    {
      "id": 63762,
      "content": ":-6",
      "single_word": false,
      "lstrip": false,
      "rstrip": false,
      "normalized": true,
      "special": false
    },
    {
      "id": 63763,
      "content": "+:-)",
      "single_word": false,
      "lstrip": false,
      "rstrip": false,
      "normalized": true,
      "special": false
    },
    {
      "id": 63764,
      "content": "O:-)",
      "single_word": false,
      "lstrip": false,
      "rstrip": false,
      "normalized": true,
      "special": false
    },
    {
      "id": 63765,
      "content": ":-<",
      "single_word": false,
      "lstrip": false,
      "rstrip": false,
      "normalized": true,
      "special": false
    },
    {
      "id": 63766,
      "content": ":-?",
      "single_word": false,
      "lstrip": false,
      "rstrip": false,
      "normalized": true,
      "special": false
    },
    {
      "id": 63767,
      "content": ":-E",
      "single_word": false,
      "lstrip": false,
      "rstrip": false,
      "normalized": true,
      "special": false
    },
    {
      "id": 63768,
      "content": ":-Q",
      "single_word": false,
      "lstrip": false,
      "rstrip": false,
      "normalized": true,
      "special": false
    },
    {
      "id": 63769,
      "content": ":-}X",
      "single_word": false,
      "lstrip": false,
      "rstrip": false,
      "normalized": true,
      "special": false
    },
    {
      "id": 63770,
      "content": ":-[",
      "single_word": false,
      "lstrip": false,
      "rstrip": false,
      "normalized": true,
      "special": false
    },
    {
      "id": 63771,
      "content": ":-a",
      "single_word": false,
      "lstrip": false,
      "rstrip": false,
      "normalized": true,
      "special": false
    },
    {
      "id": 63772,
      "content": ":-{",
      "single_word": false,
      "lstrip": false,
      "rstrip": false,
      "normalized": true,
      "special": false
    },
    {
      "id": 63773,
      "content": ":-{}",
      "single_word": false,
      "lstrip": false,
      "rstrip": false,
      "normalized": true,
      "special": false
    },
    {
      "id": 63774,
      "content": ":^)",
      "single_word": false,
      "lstrip": false,
      "rstrip": false,
      "normalized": true,
      "special": false
    },
    {
      "id": 63775,
      "content": "<:-l",
      "single_word": false,
      "lstrip": false,
      "rstrip": false,
      "normalized": true,
      "special": false
    },
    {
      "id": 63776,
      "content": ":=)",
      "single_word": false,
      "lstrip": false,
      "rstrip": false,
      "normalized": true,
      "special": false
    },
    {
      "id": 63777,
      "content": ">:->",
      "single_word": false,
      "lstrip": false,
      "rstrip": false,
      "normalized": true,
      "special": false
    },
    {
      "id": 63778,
      "content": ">:-l",
      "single_word": false,
      "lstrip": false,
      "rstrip": false,
      "normalized": true,
      "special": false
    },
    {
      "id": 63779,
      "content": "@:-)",
      "single_word": false,
      "lstrip": false,
      "rstrip": false,
      "normalized": true,
      "special": false
    },
    {
      "id": 63780,
      "content": "@:-}",
      "single_word": false,
      "lstrip": false,
      "rstrip": false,
      "normalized": true,
      "special": false
    },
    {
      "id": 63781,
      "content": "C=:-)",
      "single_word": false,
      "lstrip": false,
      "rstrip": false,
      "normalized": true,
      "special": false
    },
    {
      "id": 63782,
      "content": "X:-)",
      "single_word": false,
      "lstrip": false,
      "rstrip": false,
      "normalized": true,
      "special": false
    },
    {
      "id": 63783,
      "content": "[:-)",
      "single_word": false,
      "lstrip": false,
      "rstrip": false,
      "normalized": true,
      "special": false
    },
    {
      "id": 63784,
      "content": "[:]",
      "single_word": false,
      "lstrip": false,
      "rstrip": false,
      "normalized": true,
      "special": false
    },
    {
      "id": 63785,
      "content": "{:-)",
      "single_word": false,
      "lstrip": false,
      "rstrip": false,
      "normalized": true,
      "special": false
    },
    {
      "id": 63786,
      "content": "l^o",
      "single_word": false,
      "lstrip": false,
      "rstrip": false,
      "normalized": true,
      "special": false
    },
    {
      "id": 63787,
      "content": "}:^#)",
      "single_word": false,
      "lstrip": false,
      "rstrip": false,
      "normalized": true,
      "special": false
    },
    {
      "id": 63788,
      "content": ":-(=)",
      "single_word": false,
      "lstrip": false,
      "rstrip": false,
      "normalized": true,
      "special": false
    },
    {
      "id": 63789,
      "content": "O-)",
      "single_word": false,
      "lstrip": false,
      "rstrip": false,
      "normalized": true,
      "special": false
    },
    {
      "id": 63790,
      "content": ":-3",
      "single_word": false,
      "lstrip": false,
      "rstrip": false,
      "normalized": true,
      "special": false
    },
    {
      "id": 63791,
      "content": ":=",
      "single_word": false,
      "lstrip": false,
      "rstrip": false,
      "normalized": true,
      "special": false
    },
    {
      "id": 63792,
      "content": ":-\"",
      "single_word": false,
      "lstrip": false,
      "rstrip": false,
      "normalized": true,
      "special": false
    },
    {
      "id": 63793,
      "content": "P-(",
      "single_word": false,
      "lstrip": false,
      "rstrip": false,
      "normalized": true,
      "special": false
    },
    {
      "id": 63794,
      "content": "?-(",
      "single_word": false,
      "lstrip": false,
      "rstrip": false,
      "normalized": true,
      "special": false
    },
    {
      "id": 63795,
      "content": "d:-)",
      "single_word": false,
      "lstrip": false,
      "rstrip": false,
      "normalized": true,
      "special": false
    },
    {
      "id": 63796,
      "content": ":8)",
      "single_word": false,
      "lstrip": false,
      "rstrip": false,
      "normalized": true,
      "special": false
    },
    {
      "id": 63797,
      "content": ":-7",
      "single_word": false,
      "lstrip": false,
      "rstrip": false,
      "normalized": true,
      "special": false
    },
    {
      "id": 63798,
      "content": "):-)",
      "single_word": false,
      "lstrip": false,
      "rstrip": false,
      "normalized": true,
      "special": false
    },
    {
      "id": 63799,
      "content": ":/\\)",
      "single_word": false,
      "lstrip": false,
      "rstrip": false,
      "normalized": true,
      "special": false
    },
    {
      "id": 63800,
      "content": "8(:-)",
      "single_word": false,
      "lstrip": false,
      "rstrip": false,
      "normalized": true,
      "special": false
    },
    {
      "id": 63801,
      "content": "([(",
      "single_word": false,
      "lstrip": false,
      "rstrip": false,
      "normalized": true,
      "special": false
    },
    {
      "id": 63802,
      "content": ":-(*)",
      "single_word": false,
      "lstrip": false,
      "rstrip": false,
      "normalized": true,
      "special": false
    },
    {
      "id": 63803,
      "content": "&-l",
      "single_word": false,
      "lstrip": false,
      "rstrip": false,
      "normalized": true,
      "special": false
    },
    {
      "id": 63804,
      "content": ":-e",
      "single_word": false,
      "lstrip": false,
      "rstrip": false,
      "normalized": true,
      "special": false
    },
    {
      "id": 63805,
      "content": ":(",
      "single_word": false,
      "lstrip": false,
      "rstrip": false,
      "normalized": true,
      "special": false
    },
    {
      "id": 63806,
      "content": ":,(",
      "single_word": false,
      "lstrip": false,
      "rstrip": false,
      "normalized": true,
      "special": false
    },
    {
      "id": 63807,
      "content": ":-(",
      "single_word": false,
      "lstrip": false,
      "rstrip": false,
      "normalized": true,
      "special": false
    },
    {
      "id": 63808,
      "content": ":-P",
      "single_word": false,
      "lstrip": false,
      "rstrip": false,
      "normalized": true,
      "special": false
    },
    {
      "id": 63809,
      "content": ":-S",
      "single_word": false,
      "lstrip": false,
      "rstrip": false,
      "normalized": true,
      "special": false
    },
    {
      "id": 63810,
      "content": ":-C",
      "single_word": false,
      "lstrip": false,
      "rstrip": false,
      "normalized": true,
      "special": false
    },
    {
      "id": 63811,
      "content": ":-r",
      "single_word": false,
      "lstrip": false,
      "rstrip": false,
      "normalized": true,
      "special": false
    },
    {
      "id": 63812,
      "content": ":-t",
      "single_word": false,
      "lstrip": false,
      "rstrip": false,
      "normalized": true,
      "special": false
    },
    {
      "id": 63813,
      "content": ":-W",
      "single_word": false,
      "lstrip": false,
      "rstrip": false,
      "normalized": true,
      "special": false
    },
    {
      "id": 63814,
      "content": "X-(",
      "single_word": false,
      "lstrip": false,
      "rstrip": false,
      "normalized": true,
      "special": false
    },
    {
      "id": 63815,
      "content": "l-O",
      "single_word": false,
      "lstrip": false,
      "rstrip": false,
      "normalized": true,
      "special": false
    },
    {
      "id": 63816,
      "content": "l:-O",
      "single_word": false,
      "lstrip": false,
      "rstrip": false,
      "normalized": true,
      "special": false
    },
    {
      "id": 63817,
      "content": "$-)",
      "single_word": false,
      "lstrip": false,
      "rstrip": false,
      "normalized": true,
      "special": false
    },
    {
      "id": 63818,
      "content": ":-!",
      "single_word": false,
      "lstrip": false,
      "rstrip": false,
      "normalized": true,
      "special": false
    },
    {
      "id": 63819,
      "content": ":----}",
      "single_word": false,
      "lstrip": false,
      "rstrip": false,
      "normalized": true,
      "special": false
    },
    {
      "id": 63820,
      "content": "=:-)",
      "single_word": false,
      "lstrip": false,
      "rstrip": false,
      "normalized": true,
      "special": false
    },
    {
      "id": 63821,
      "content": "=:-(",
      "single_word": false,
      "lstrip": false,
      "rstrip": false,
      "normalized": true,
      "special": false
    },
    {
      "id": 63822,
      "content": "3:[",
      "single_word": false,
      "lstrip": false,
      "rstrip": false,
      "normalized": true,
      "special": false
    },
    {
      "id": 63823,
      "content": "8<:-)",
      "single_word": false,
      "lstrip": false,
      "rstrip": false,
      "normalized": true,
      "special": false
    },
    {
      "id": 63824,
      "content": ":#)",
      "single_word": false,
      "lstrip": false,
      "rstrip": false,
      "normalized": true,
      "special": false
    },
    {
      "id": 63825,
      "content": "8-#",
      "single_word": false,
      "lstrip": false,
      "rstrip": false,
      "normalized": true,
      "special": false
    },
    {
      "id": 63826,
      "content": "B-)",
      "single_word": false,
      "lstrip": false,
      "rstrip": false,
      "normalized": true,
      "special": false
    },
    {
      "id": 63827,
      "content": "8-)",
      "single_word": false,
      "lstrip": false,
      "rstrip": false,
      "normalized": true,
      "special": false
    },
    {
      "id": 63828,
      "content": "|-(",
      "single_word": false,
      "lstrip": false,
      "rstrip": false,
      "normalized": true,
      "special": false
    },
    {
      "id": 63829,
      "content": "H-)",
      "single_word": false,
      "lstrip": false,
      "rstrip": false,
      "normalized": true,
      "special": false
    },
    {
      "id": 63830,
      "content": "]-I",
      "single_word": false,
      "lstrip": false,
      "rstrip": false,
      "normalized": true,
      "special": false
    },
    {
      "id": 63831,
      "content": "V^J",
      "single_word": false,
      "lstrip": false,
      "rstrip": false,
      "normalized": true,
      "special": false
    },
    {
      "id": 63832,
      "content": "+-(",
      "single_word": false,
      "lstrip": false,
      "rstrip": false,
      "normalized": true,
      "special": false
    },
    {
      "id": 63833,
      "content": "~:-P",
      "single_word": false,
      "lstrip": false,
      "rstrip": false,
      "normalized": true,
      "special": false
    },
    {
      "id": 63834,
      "content": "`'",
      "single_word": false,
      "lstrip": false,
      "rstrip": false,
      "normalized": true,
      "special": false
    },
    {
      "id": 63835,
      "content": "L-P",
      "single_word": false,
      "lstrip": false,
      "rstrip": false,
      "normalized": true,
      "special": false
    },
    {
      "id": 63836,
      "content": "O|",
      "single_word": false,
      "lstrip": false,
      "rstrip": false,
      "normalized": true,
      "special": false
    },
    {
      "id": 63837,
      "content": "ㅜㅜ",
      "single_word": false,
      "lstrip": false,
      "rstrip": false,
      "normalized": true,
      "special": false
    },
    {
      "id": 63838,
      "content": "ㅠㅠ",
      "single_word": false,
      "lstrip": false,
      "rstrip": false,
      "normalized": true,
      "special": false
    },
    {
      "id": 63839,
      "content": "ㅡㅡ",
      "single_word": false,
      "lstrip": false,
      "rstrip": false,
      "normalized": true,
      "special": false
    },
    {
      "id": 63840,
      "content": "😠",
      "single_word": false,
      "lstrip": false,
      "rstrip": false,
      "normalized": true,
      "special": false
    },
    {
      "id": 63841,
      "content": "👿",
      "single_word": false,
      "lstrip": false,
      "rstrip": false,
      "normalized": true,
      "special": false
    },
    {
      "id": 63842,
      "content": "😧",
      "single_word": false,
      "lstrip": false,
      "rstrip": false,
      "normalized": true,
      "special": false
    },
    {
      "id": 63843,
      "content": "😰",
      "single_word": false,
      "lstrip": false,
      "rstrip": false,
      "normalized": true,
      "special": false
    },
    {
      "id": 63844,
      "content": "😲",
      "single_word": false,
      "lstrip": false,
      "rstrip": false,
      "normalized": true,
      "special": false
    },
    {
      "id": 63845,
      "content": "😁",
      "single_word": false,
      "lstrip": false,
      "rstrip": false,
      "normalized": true,
      "special": false
    },
    {
      "id": 63846,
      "content": "🐻",
      "single_word": false,
      "lstrip": false,
      "rstrip": false,
      "normalized": true,
      "special": false
    },
    {
      "id": 63847,
      "content": "🐱",
      "single_word": false,
      "lstrip": false,
      "rstrip": false,
      "normalized": true,
      "special": false
    },
    {
      "id": 63848,
      "content": "😹",
      "single_word": false,
      "lstrip": false,
      "rstrip": false,
      "normalized": true,
      "special": false
    },
    {
      "id": 63849,
      "content": "😼",
      "single_word": false,
      "lstrip": false,
      "rstrip": false,
      "normalized": true,
      "special": false
    },
    {
      "id": 63850,
      "content": "🤡",
      "single_word": false,
      "lstrip": false,
      "rstrip": false,
      "normalized": true,
      "special": false
    },
    {
      "id": 63851,
      "content": "🥶",
      "single_word": false,
      "lstrip": false,
      "rstrip": false,
      "normalized": true,
      "special": false
    },
    {
      "id": 63852,
      "content": "😖",
      "single_word": false,
      "lstrip": false,
      "rstrip": false,
      "normalized": true,
      "special": false
    },
    {
      "id": 63853,
      "content": "😕",
      "single_word": false,
      "lstrip": false,
      "rstrip": false,
      "normalized": true,
      "special": false
    },
    {
      "id": 63854,
      "content": "🐮",
      "single_word": false,
      "lstrip": false,
      "rstrip": false,
      "normalized": true,
      "special": false
    },
    {
      "id": 63855,
      "content": "🤠",
      "single_word": false,
      "lstrip": false,
      "rstrip": false,
      "normalized": true,
      "special": false
    },
    {
      "id": 63856,
      "content": "😿",
      "single_word": false,
      "lstrip": false,
      "rstrip": false,
      "normalized": true,
      "special": false
    },
    {
      "id": 63857,
      "content": "😢",
      "single_word": false,
      "lstrip": false,
      "rstrip": false,
      "normalized": true,
      "special": false
    },
    {
      "id": 63858,
      "content": "😞",
      "single_word": false,
      "lstrip": false,
      "rstrip": false,
      "normalized": true,
      "special": false
    },
    {
      "id": 63859,
      "content": "😵",
      "single_word": false,
      "lstrip": false,
      "rstrip": false,
      "normalized": true,
      "special": false
    },
    {
      "id": 63860,
      "content": "🐶",
      "single_word": false,
      "lstrip": false,
      "rstrip": false,
      "normalized": true,
      "special": false
    },
    {
      "id": 63861,
      "content": "😓",
      "single_word": false,
      "lstrip": false,
      "rstrip": false,
      "normalized": true,
      "special": false
    },
    {
      "id": 63862,
      "content": "🐲",
      "single_word": false,
      "lstrip": false,
      "rstrip": false,
      "normalized": true,
      "special": false
    },
    {
      "id": 63863,
      "content": "🤤",
      "single_word": false,
      "lstrip": false,
      "rstrip": false,
      "normalized": true,
      "special": false
    },
    {
      "id": 63864,
      "content": "😑",
      "single_word": false,
      "lstrip": false,
      "rstrip": false,
      "normalized": true,
      "special": false
    },
    {
      "id": 63865,
      "content": "😘",
      "single_word": false,
      "lstrip": false,
      "rstrip": false,
      "normalized": true,
      "special": false
    },
    {
      "id": 63866,
      "content": "😋",
      "single_word": false,
      "lstrip": false,
      "rstrip": false,
      "normalized": true,
      "special": false
    },
    {
      "id": 63867,
      "content": "😱",
      "single_word": false,
      "lstrip": false,
      "rstrip": false,
      "normalized": true,
      "special": false
    },
    {
      "id": 63868,
      "content": "🤮",
      "single_word": false,
      "lstrip": false,
      "rstrip": false,
      "normalized": true,
      "special": false
    },
    {
      "id": 63869,
      "content": "🤭",
      "single_word": false,
      "lstrip": false,
      "rstrip": false,
      "normalized": true,
      "special": false
    },
    {
      "id": 63870,
      "content": "🤕",
      "single_word": false,
      "lstrip": false,
      "rstrip": false,
      "normalized": true,
      "special": false
    },
    {
      "id": 63871,
      "content": "😷",
      "single_word": false,
      "lstrip": false,
      "rstrip": false,
      "normalized": true,
      "special": false
    },
    {
      "id": 63872,
      "content": "🧐",
      "single_word": false,
      "lstrip": false,
      "rstrip": false,
      "normalized": true,
      "special": false
    },
    {
      "id": 63873,
      "content": "😮",
      "single_word": false,
      "lstrip": false,
      "rstrip": false,
      "normalized": true,
      "special": false
    },
    {
      "id": 63874,
      "content": "🤨",
      "single_word": false,
      "lstrip": false,
      "rstrip": false,
      "normalized": true,
      "special": false
    },
    {
      "id": 63875,
      "content": "🙄",
      "single_word": false,
      "lstrip": false,
      "rstrip": false,
      "normalized": true,
      "special": false
    },
    {
      "id": 63876,
      "content": "😤",
      "single_word": false,
      "lstrip": false,
      "rstrip": false,
      "normalized": true,
      "special": false
    },
    {
      "id": 63877,
      "content": "🤬",
      "single_word": false,
      "lstrip": false,
      "rstrip": false,
      "normalized": true,
      "special": false
    },
    {
      "id": 63878,
      "content": "😂",
      "single_word": false,
      "lstrip": false,
      "rstrip": false,
      "normalized": true,
      "special": false
    },
    {
      "id": 63879,
      "content": "🤒",
      "single_word": false,
      "lstrip": false,
      "rstrip": false,
      "normalized": true,
      "special": false
    },
    {
      "id": 63880,
      "content": "😛",
      "single_word": false,
      "lstrip": false,
      "rstrip": false,
      "normalized": true,
      "special": false
    },
    {
      "id": 63881,
      "content": "😶",
      "single_word": false,
      "lstrip": false,
      "rstrip": false,
      "normalized": true,
      "special": false
    },
    {
      "id": 63882,
      "content": "😨",
      "single_word": false,
      "lstrip": false,
      "rstrip": false,
      "normalized": true,
      "special": false
    },
    {
      "id": 63883,
      "content": "🌛",
      "single_word": false,
      "lstrip": false,
      "rstrip": false,
      "normalized": true,
      "special": false
    },
    {
      "id": 63884,
      "content": "😳",
      "single_word": false,
      "lstrip": false,
      "rstrip": false,
      "normalized": true,
      "special": false
    },
    {
      "id": 63885,
      "content": "🦊",
      "single_word": false,
      "lstrip": false,
      "rstrip": false,
      "normalized": true,
      "special": false
    },
    {
      "id": 63886,
      "content": "🐸",
      "single_word": false,
      "lstrip": false,
      "rstrip": false,
      "normalized": true,
      "special": false
    },
    {
      "id": 63887,
      "content": "☹",
      "single_word": false,
      "lstrip": false,
      "rstrip": false,
      "normalized": true,
      "special": false
    },
    {
      "id": 63888,
      "content": "☹️",
      "single_word": false,
      "lstrip": false,
      "rstrip": false,
      "normalized": true,
      "special": false
    },
    {
      "id": 63889,
      "content": "😦",
      "single_word": false,
      "lstrip": false,
      "rstrip": false,
      "normalized": true,
      "special": false
    },
    {
      "id": 63890,
      "content": "🌝",
      "single_word": false,
      "lstrip": false,
      "rstrip": false,
      "normalized": true,
      "special": false
    },
    {
      "id": 63891,
      "content": "😬",
      "single_word": false,
      "lstrip": false,
      "rstrip": false,
      "normalized": true,
      "special": false
    },
    {
      "id": 63892,
      "content": "😺",
      "single_word": false,
      "lstrip": false,
      "rstrip": false,
      "normalized": true,
      "special": false
    },
    {
      "id": 63893,
      "content": "😸",
      "single_word": false,
      "lstrip": false,
      "rstrip": false,
      "normalized": true,
      "special": false
    },
    {
      "id": 63894,
      "content": "😀",
      "single_word": false,
      "lstrip": false,
      "rstrip": false,
      "normalized": true,
      "special": false
    },
    {
      "id": 63895,
      "content": "😃",
      "single_word": false,
      "lstrip": false,
      "rstrip": false,
      "normalized": true,
      "special": false
    },
    {
      "id": 63896,
      "content": "😄",
      "single_word": false,
      "lstrip": false,
      "rstrip": false,
      "normalized": true,
      "special": false
    },
    {
      "id": 63897,
      "content": "😅",
      "single_word": false,
      "lstrip": false,
      "rstrip": false,
      "normalized": true,
      "special": false
    },
    {
      "id": 63898,
      "content": "😆",
      "single_word": false,
      "lstrip": false,
      "rstrip": false,
      "normalized": true,
      "special": false
    },
    {
      "id": 63899,
      "content": "🐹",
      "single_word": false,
      "lstrip": false,
      "rstrip": false,
      "normalized": true,
      "special": false
    },
    {
      "id": 63900,
      "content": "🐴",
      "single_word": false,
      "lstrip": false,
      "rstrip": false,
      "normalized": true,
      "special": false
    },
    {
      "id": 63901,
      "content": "🥵",
      "single_word": false,
      "lstrip": false,
      "rstrip": false,
      "normalized": true,
      "special": false
    },
    {
      "id": 63902,
      "content": "🤗",
      "single_word": false,
      "lstrip": false,
      "rstrip": false,
      "normalized": true,
      "special": false
    },
    {
      "id": 63903,
      "content": "😯",
      "single_word": false,
      "lstrip": false,
      "rstrip": false,
      "normalized": true,
      "special": false
    },
    {
      "id": 63904,
      "content": "😽",
      "single_word": false,
      "lstrip": false,
      "rstrip": false,
      "normalized": true,
      "special": false
    },
    {
      "id": 63905,
      "content": "😗",
      "single_word": false,
      "lstrip": false,
      "rstrip": false,
      "normalized": true,
      "special": false
    },
    {
      "id": 63906,
      "content": "😚",
      "single_word": false,
      "lstrip": false,
      "rstrip": false,
      "normalized": true,
      "special": false
    },
    {
      "id": 63907,
      "content": "😙",
      "single_word": false,
      "lstrip": false,
      "rstrip": false,
      "normalized": true,
      "special": false
    },
    {
      "id": 63908,
      "content": "🌜",
      "single_word": false,
      "lstrip": false,
      "rstrip": false,
      "normalized": true,
      "special": false
    },
    {
      "id": 63909,
      "content": "🦁",
      "single_word": false,
      "lstrip": false,
      "rstrip": false,
      "normalized": true,
      "special": false
    },
    {
      "id": 63910,
      "content": "😭",
      "single_word": false,
      "lstrip": false,
      "rstrip": false,
      "normalized": true,
      "special": false
    },
    {
      "id": 63911,
      "content": "🤥",
      "single_word": false,
      "lstrip": false,
      "rstrip": false,
      "normalized": true,
      "special": false
    },
    {
      "id": 63912,
      "content": "🤦🏿‍♂",
      "single_word": false,
      "lstrip": false,
      "rstrip": false,
      "normalized": true,
      "special": false
    },
    {
      "id": 63913,
      "content": "🤦🏻‍♂",
      "single_word": false,
      "lstrip": false,
      "rstrip": false,
      "normalized": true,
      "special": false
    },
    {
      "id": 63914,
      "content": "🤦🏾‍♂",
      "single_word": false,
      "lstrip": false,
      "rstrip": false,
      "normalized": true,
      "special": false
    },
    {
      "id": 63915,
      "content": "🤦🏼‍♂",
      "single_word": false,
      "lstrip": false,
      "rstrip": false,
      "normalized": true,
      "special": false
    },
    {
      "id": 63916,
      "content": "🤦🏽‍♂",
      "single_word": false,
      "lstrip": false,
      "rstrip": false,
      "normalized": true,
      "special": false
    },
    {
      "id": 63917,
      "content": "🤦‍♂",
      "single_word": false,
      "lstrip": false,
      "rstrip": false,
      "normalized": true,
      "special": false
    },
    {
      "id": 63918,
      "content": "🤦🏿‍♂️",
      "single_word": false,
      "lstrip": false,
      "rstrip": false,
      "normalized": true,
      "special": false
    },
    {
      "id": 63919,
      "content": "🤦🏻‍♂️",
      "single_word": false,
      "lstrip": false,
      "rstrip": false,
      "normalized": true,
      "special": false
    },
    {
      "id": 63920,
      "content": "🤦🏾‍♂️",
      "single_word": false,
      "lstrip": false,
      "rstrip": false,
      "normalized": true,
      "special": false
    },
    {
      "id": 63921,
      "content": "🤦🏼‍♂️",
      "single_word": false,
      "lstrip": false,
      "rstrip": false,
      "normalized": true,
      "special": false
    },
    {
      "id": 63922,
      "content": "🤦🏽‍♂️",
      "single_word": false,
      "lstrip": false,
      "rstrip": false,
      "normalized": true,
      "special": false
    },
    {
      "id": 63923,
      "content": "🤦‍♂️",
      "single_word": false,
      "lstrip": false,
      "rstrip": false,
      "normalized": true,
      "special": false
    },
    {
      "id": 63924,
      "content": "🤑",
      "single_word": false,
      "lstrip": false,
      "rstrip": false,
      "normalized": true,
      "special": false
    },
    {
      "id": 63925,
      "content": "🐵",
      "single_word": false,
      "lstrip": false,
      "rstrip": false,
      "normalized": true,
      "special": false
    },
    {
      "id": 63926,
      "content": "🐭",
      "single_word": false,
      "lstrip": false,
      "rstrip": false,
      "normalized": true,
      "special": false
    },
    {
      "id": 63927,
      "content": "🤢",
      "single_word": false,
      "lstrip": false,
      "rstrip": false,
      "normalized": true,
      "special": false
    },
    {
      "id": 63928,
      "content": "🤓",
      "single_word": false,
      "lstrip": false,
      "rstrip": false,
      "normalized": true,
      "special": false
    },
    {
      "id": 63929,
      "content": "😐",
      "single_word": false,
      "lstrip": false,
      "rstrip": false,
      "normalized": true,
      "special": false
    },
    {
      "id": 63930,
      "content": "🌚",
      "single_word": false,
      "lstrip": false,
      "rstrip": false,
      "normalized": true,
      "special": false
    },
    {
      "id": 63931,
      "content": "🐼",
      "single_word": false,
      "lstrip": false,
      "rstrip": false,
      "normalized": true,
      "special": false
    },
    {
      "id": 63932,
      "content": "🥳",
      "single_word": false,
      "lstrip": false,
      "rstrip": false,
      "normalized": true,
      "special": false
    },
    {
      "id": 63933,
      "content": "😔",
      "single_word": false,
      "lstrip": false,
      "rstrip": false,
      "normalized": true,
      "special": false
    },
    {
      "id": 63934,
      "content": "😣",
      "single_word": false,
      "lstrip": false,
      "rstrip": false,
      "normalized": true,
      "special": false
    },
    {
      "id": 63935,
      "content": "🤦",
      "single_word": false,
      "lstrip": false,
      "rstrip": false,
      "normalized": true,
      "special": false
    },
    {
      "id": 63936,
      "content": "🤦🏿",
      "single_word": false,
      "lstrip": false,
      "rstrip": false,
      "normalized": true,
      "special": false
    },
    {
      "id": 63937,
      "content": "🤦🏻",
      "single_word": false,
      "lstrip": false,
      "rstrip": false,
      "normalized": true,
      "special": false
    },
    {
      "id": 63938,
      "content": "🤦🏾",
      "single_word": false,
      "lstrip": false,
      "rstrip": false,
      "normalized": true,
      "special": false
    },
    {
      "id": 63939,
      "content": "🤦🏼",
      "single_word": false,
      "lstrip": false,
      "rstrip": false,
      "normalized": true,
      "special": false
    },
    {
      "id": 63940,
      "content": "🤦🏽",
      "single_word": false,
      "lstrip": false,
      "rstrip": false,
      "normalized": true,
      "special": false
    },
    {
      "id": 63941,
      "content": "🐷",
      "single_word": false,
      "lstrip": false,
      "rstrip": false,
      "normalized": true,
      "special": false
    },
    {
      "id": 63942,
      "content": "🥺",
      "single_word": false,
      "lstrip": false,
      "rstrip": false,
      "normalized": true,
      "special": false
    },
    {
      "id": 63943,
      "content": "😾",
      "single_word": false,
      "lstrip": false,
      "rstrip": false,
      "normalized": true,
      "special": false
    },
    {
      "id": 63944,
      "content": "😡",
      "single_word": false,
      "lstrip": false,
      "rstrip": false,
      "normalized": true,
      "special": false
    },
    {
      "id": 63945,
      "content": "🐰",
      "single_word": false,
      "lstrip": false,
      "rstrip": false,
      "normalized": true,
      "special": false
    },
    {
      "id": 63946,
      "content": "😌",
      "single_word": false,
      "lstrip": false,
      "rstrip": false,
      "normalized": true,
      "special": false
    },
    {
      "id": 63947,
      "content": "🤖",
      "single_word": false,
      "lstrip": false,
      "rstrip": false,
      "normalized": true,
      "special": false
    },
    {
      "id": 63948,
      "content": "😥",
      "single_word": false,
      "lstrip": false,
      "rstrip": false,
      "normalized": true,
      "special": false
    },
    {
      "id": 63949,
      "content": "🤫",
      "single_word": false,
      "lstrip": false,
      "rstrip": false,
      "normalized": true,
      "special": false
    },
    {
      "id": 63950,
      "content": "😴",
      "single_word": false,
      "lstrip": false,
      "rstrip": false,
      "normalized": true,
      "special": false
    },
    {
      "id": 63951,
      "content": "😪",
      "single_word": false,
      "lstrip": false,
      "rstrip": false,
      "normalized": true,
      "special": false
    },
    {
      "id": 63952,
      "content": "🙁",
      "single_word": false,
      "lstrip": false,
      "rstrip": false,
      "normalized": true,
      "special": false
    },
    {
      "id": 63953,
      "content": "🙂",
      "single_word": false,
      "lstrip": false,
      "rstrip": false,
      "normalized": true,
      "special": false
    },
    {
      "id": 63954,
      "content": "😻",
      "single_word": false,
      "lstrip": false,
      "rstrip": false,
      "normalized": true,
      "special": false
    },
    {
      "id": 63955,
      "content": "☺",
      "single_word": false,
      "lstrip": false,
      "rstrip": false,
      "normalized": true,
      "special": false
    },
    {
      "id": 63956,
      "content": "☺️",
      "single_word": false,
      "lstrip": false,
      "rstrip": false,
      "normalized": true,
      "special": false
    },
    {
      "id": 63957,
      "content": "🥰",
      "single_word": false,
      "lstrip": false,
      "rstrip": false,
      "normalized": true,
      "special": false
    },
    {
      "id": 63958,
      "content": "😇",
      "single_word": false,
      "lstrip": false,
      "rstrip": false,
      "normalized": true,
      "special": false
    },
    {
      "id": 63959,
      "content": "😍",
      "single_word": false,
      "lstrip": false,
      "rstrip": false,
      "normalized": true,
      "special": false
    },
    {
      "id": 63960,
      "content": "😈",
      "single_word": false,
      "lstrip": false,
      "rstrip": false,
      "normalized": true,
      "special": false
    },
    {
      "id": 63961,
      "content": "😊",
      "single_word": false,
      "lstrip": false,
      "rstrip": false,
      "normalized": true,
      "special": false
    },
    {
      "id": 63962,
      "content": "😎",
      "single_word": false,
      "lstrip": false,
      "rstrip": false,
      "normalized": true,
      "special": false
    },
    {
      "id": 63963,
      "content": "😏",
      "single_word": false,
      "lstrip": false,
      "rstrip": false,
      "normalized": true,
      "special": false
    },
    {
      "id": 63964,
      "content": "🤧",
      "single_word": false,
      "lstrip": false,
      "rstrip": false,
      "normalized": true,
      "special": false
    },
    {
      "id": 63965,
      "content": "😝",
      "single_word": false,
      "lstrip": false,
      "rstrip": false,
      "normalized": true,
      "special": false
    },
    {
      "id": 63966,
      "content": "🌞",
      "single_word": false,
      "lstrip": false,
      "rstrip": false,
      "normalized": true,
      "special": false
    },
    {
      "id": 63967,
      "content": "🤔",
      "single_word": false,
      "lstrip": false,
      "rstrip": false,
      "normalized": true,
      "special": false
    },
    {
      "id": 63968,
      "content": "🐯",
      "single_word": false,
      "lstrip": false,
      "rstrip": false,
      "normalized": true,
      "special": false
    },
    {
      "id": 63969,
      "content": "😫",
      "single_word": false,
      "lstrip": false,
      "rstrip": false,
      "normalized": true,
      "special": false
    },
    {
      "id": 63970,
      "content": "😒",
      "single_word": false,
      "lstrip": false,
      "rstrip": false,
      "normalized": true,
      "special": false
    },
    {
      "id": 63971,
      "content": "🦄",
      "single_word": false,
      "lstrip": false,
      "rstrip": false,
      "normalized": true,
      "special": false
    },
    {
      "id": 63972,
      "content": "🙃",
      "single_word": false,
      "lstrip": false,
      "rstrip": false,
      "normalized": true,
      "special": false
    },
    {
      "id": 63973,
      "content": "🙀",
      "single_word": false,
      "lstrip": false,
      "rstrip": false,
      "normalized": true,
      "special": false
    },
    {
      "id": 63974,
      "content": "😩",
      "single_word": false,
      "lstrip": false,
      "rstrip": false,
      "normalized": true,
      "special": false
    },
    {
      "id": 63975,
      "content": "🌬",
      "single_word": false,
      "lstrip": false,
      "rstrip": false,
      "normalized": true,
      "special": false
    },
    {
      "id": 63976,
      "content": "🌬️",
      "single_word": false,
      "lstrip": false,
      "rstrip": false,
      "normalized": true,
      "special": false
    },
    {
      "id": 63977,
      "content": "😉",
      "single_word": false,
      "lstrip": false,
      "rstrip": false,
      "normalized": true,
      "special": false
    },
    {
      "id": 63978,
      "content": "😜",
      "single_word": false,
      "lstrip": false,
      "rstrip": false,
      "normalized": true,
      "special": false
    },
    {
      "id": 63979,
      "content": "🐺",
      "single_word": false,
      "lstrip": false,
      "rstrip": false,
      "normalized": true,
      "special": false
    },
    {
      "id": 63980,
      "content": "🤦🏿‍♀",
      "single_word": false,
      "lstrip": false,
      "rstrip": false,
      "normalized": true,
      "special": false
    },
    {
      "id": 63981,
      "content": "🤦🏻‍♀",
      "single_word": false,
      "lstrip": false,
      "rstrip": false,
      "normalized": true,
      "special": false
    },
    {
      "id": 63982,
      "content": "🤦🏾‍♀",
      "single_word": false,
      "lstrip": false,
      "rstrip": false,
      "normalized": true,
      "special": false
    },
    {
      "id": 63983,
      "content": "🤦🏼‍♀",
      "single_word": false,
      "lstrip": false,
      "rstrip": false,
      "normalized": true,
      "special": false
    },
    {
      "id": 63984,
      "content": "🤦🏽‍♀",
      "single_word": false,
      "lstrip": false,
      "rstrip": false,
      "normalized": true,
      "special": false
    },
    {
      "id": 63985,
      "content": "🤦‍♀",
      "single_word": false,
      "lstrip": false,
      "rstrip": false,
      "normalized": true,
      "special": false
    },
    {
      "id": 63986,
      "content": "🤦🏿‍♀️",
      "single_word": false,
      "lstrip": false,
      "rstrip": false,
      "normalized": true,
      "special": false
    },
    {
      "id": 63987,
      "content": "🤦🏻‍♀️",
      "single_word": false,
      "lstrip": false,
      "rstrip": false,
      "normalized": true,
      "special": false
    },
    {
      "id": 63988,
      "content": "🤦🏾‍♀️",
      "single_word": false,
      "lstrip": false,
      "rstrip": false,
      "normalized": true,
      "special": false
    },
    {
      "id": 63989,
      "content": "🤦🏼‍♀️",
      "single_word": false,
      "lstrip": false,
      "rstrip": false,
      "normalized": true,
      "special": false
    },
    {
      "id": 63990,
      "content": "🤦🏽‍♀️",
      "single_word": false,
      "lstrip": false,
      "rstrip": false,
      "normalized": true,
      "special": false
    },
    {
      "id": 63991,
      "content": "🤦‍♀️",
      "single_word": false,
      "lstrip": false,
      "rstrip": false,
      "normalized": true,
      "special": false
    },
    {
      "id": 63992,
      "content": "🥴",
      "single_word": false,
      "lstrip": false,
      "rstrip": false,
      "normalized": true,
      "special": false
    },
    {
      "id": 63993,
      "content": "😟",
      "single_word": false,
      "lstrip": false,
      "rstrip": false,
      "normalized": true,
      "special": false
    },
    {
      "id": 63994,
      "content": "🥱",
      "single_word": false,
      "lstrip": false,
      "rstrip": false,
      "normalized": true,
      "special": false
    },
    {
      "id": 63995,
      "content": "🤪",
      "single_word": false,
      "lstrip": false,
      "rstrip": false,
      "normalized": true,
      "special": false
    },
    {
      "id": 63996,
      "content": "🤐",
      "single_word": false,
      "lstrip": false,
      "rstrip": false,
      "normalized": true,
      "special": false
    },
    {
      "id": 63997,
      "content": "\n",
      "single_word": false,
      "lstrip": false,
      "rstrip": false,
      "normalized": true,
      "special": false
    }
  ],
  "normalizer": null,
  "pre_tokenizer": {
    "type": "ByteLevel",
    "add_prefix_space": false,
    "trim_offsets": true,
    "use_regex": true
  },
  "post_processor": {
    "type": "ByteLevel",
    "add_prefix_space": true,
    "trim_offsets": false,
    "use_regex": true
  },
  "decoder": {
    "type": "ByteLevel",
    "add_prefix_space": true,
    "trim_offsets": true,
    "use_regex": true
  },
  "model": {
    "type": "BPE",
    "dropout": null,
    "unk_token": null,
    "continuing_subword_prefix": null,
    "end_of_word_suffix": null,
    "fuse_unk": false,
    "vocab": {
      "[BOS]": 0,
      "[EOS]": 1,
      "[MASK]": 2,
      "[PAD]": 3,
      "[UNK]": 4,
      "[CLS]": 5,
      "[SEP]": 6,
      "[COMP]": 7,
      "[BRAND]": 8,
      "[NAME]": 9,
      "[CAT]": 10,
      "[KEY]": 11,
      "[COPY]": 12,
      "[UNUSED6]": 13,
      "[UNUSED7]": 14,
      "[UNUSED8]": 15,
      "[UNUSED9]": 16,
      "[UNUSED10]": 17,
      "[UNUSED11]": 18,
      "[UNUSED12]": 19,
      "[UNUSED13]": 20,
      "[UNUSED14]": 21,
      "[UNUSED15]": 22,
      "[UNUSED16]": 23,
      "[UNUSED17]": 24,
      "[UNUSED18]": 25,
      "[UNUSED19]": 26,
      "[UNUSED20]": 27,
      "[UNUSED21]": 28,
      "[UNUSED22]": 29,
      "[UNUSED23]": 30,
      "[UNUSED24]": 31,
      "[UNUSED25]": 32,
      "[UNUSED26]": 33,
      "[UNUSED27]": 34,
      "[UNUSED28]": 35,
      "[UNUSED29]": 36,
      "[UNUSED30]": 37,
      "[UNUSED31]": 38,
      "[UNUSED32]": 39,
      "[UNUSED33]": 40,
      "[UNUSED34]": 41,
      "[UNUSED35]": 42,
      "[UNUSED36]": 43,
      "[UNUSED37]": 44,
      "[UNUSED38]": 45,
      "[UNUSED39]": 46,
      "[UNUSED40]": 47,
      "[UNUSED41]": 48,
      "[UNUSED42]": 49,
      "[UNUSED43]": 50,
      "[UNUSED44]": 51,
      "[UNUSED45]": 52,
      "[UNUSED46]": 53,
      "[UNUSED47]": 54,
      "[UNUSED48]": 55,
      "[UNUSED49]": 56,
      "[UNUSED50]": 57,
      "[UNUSED51]": 58,
      "[UNUSED52]": 59,
      "[UNUSED53]": 60,
      "[UNUSED54]": 61,
      "[UNUSED55]": 62,
      "[UNUSED56]": 63,
      "[UNUSED57]": 64,
      "[UNUSED58]": 65,
      "[UNUSED59]": 66,
      "[UNUSED60]": 67,
      "[UNUSED61]": 68,
      "[UNUSED62]": 69,
      "[UNUSED63]": 70,
      "[UNUSED64]": 71,
      "[UNUSED65]": 72,
      "[UNUSED66]": 73,
      "[UNUSED67]": 74,
      "[UNUSED68]": 75,
      "[UNUSED69]": 76,
      "[UNUSED70]": 77,
      "[UNUSED71]": 78,
      "[UNUSED72]": 79,
      "[UNUSED73]": 80,
      "[UNUSED74]": 81,
      "[UNUSED75]": 82,
      "[UNUSED76]": 83,
      "[UNUSED77]": 84,
      "[UNUSED78]": 85,
      "[UNUSED79]": 86,
      "[UNUSED80]": 87,
      "[UNUSED81]": 88,
      "[UNUSED82]": 89,
      "[UNUSED83]": 90,
      "[UNUSED84]": 91,
      "[UNUSED85]": 92,
      "[UNUSED86]": 93,
      "[UNUSED87]": 94,
      "[UNUSED88]": 95,
      "[UNUSED89]": 96,
      "[UNUSED90]": 97,
      "[UNUSED91]": 98,
      "[UNUSED92]": 99,
      "[UNUSED93]": 100,
      "[UNUSED94]": 101,
      "[UNUSED95]": 102,
      "[UNUSED96]": 103,
      "[UNUSED97]": 104,
      "[UNUSED98]": 105,
      "[UNUSED99]": 106,
      "!": 107,
      "\"": 108,
      "#": 109,
      "$": 110,
      "%": 111,
      "&": 112,
      "'": 113,
      "(": 114,
      ")": 115,
      "*": 116,
      "+": 117,
      ",": 118,
      "-": 119,
      ".": 120,
      "/": 121,
      "0": 122,
      "1": 123,
      "2": 124,
      "3": 125,
      "4": 126,
      "5": 127,
      "6": 128,
      "7": 129,
      "8": 130,
      "9": 131,
      ":": 132,
      ";": 133,
      "<": 134,
      "=": 135,
      ">": 136,
      "?": 137,
      "@": 138,
      "A": 139,
      "B": 140,
      "C": 141,
      "D": 142,
      "E": 143,
      "F": 144,
      "G": 145,
      "H": 146,
      "I": 147,
      "J": 148,
      "K": 149,
      "L": 150,
      "M": 151,
      "N": 152,
      "O": 153,
      "P": 154,
      "Q": 155,
      "R": 156,
      "S": 157,
      "T": 158,
      "U": 159,
      "V": 160,
      "W": 161,
      "X": 162,
      "Y": 163,
      "Z": 164,
      "[": 165,
      "\\": 166,
      "]": 167,
      "^": 168,
      "_": 169,
      "`": 170,
      "a": 171,
      "b": 172,
      "c": 173,
      "d": 174,
      "e": 175,
      "f": 176,
      "g": 177,
      "h": 178,
      "i": 179,
      "j": 180,
      "k": 181,
      "l": 182,
      "m": 183,
      "n": 184,
      "o": 185,
      "p": 186,
      "q": 187,
      "r": 188,
      "s": 189,
      "t": 190,
      "u": 191,
      "v": 192,
      "w": 193,
      "x": 194,
      "y": 195,
      "z": 196,
      "{": 197,
      "|": 198,
      "}": 199,
      "~": 200,
      "¡": 201,
      "¢": 202,
      "£": 203,
      "¤": 204,
      "¥": 205,
      "¦": 206,
      "§": 207,
      "¨": 208,
      "©": 209,
      "ª": 210,
      "«": 211,
      "¬": 212,
      "®": 213,
      "¯": 214,
      "°": 215,
      "±": 216,
      "²": 217,
      "³": 218,
      "´": 219,
      "µ": 220,
      "¶": 221,
      "·": 222,
      "¸": 223,
      "¹": 224,
      "º": 225,
      "»": 226,
      "¼": 227,
      "½": 228,
      "¾": 229,
      "¿": 230,
      "À": 231,
      "Á": 232,
      "Â": 233,
      "Ã": 234,
      "Ä": 235,
      "Å": 236,
      "Æ": 237,
      "Ç": 238,
      "È": 239,
      "É": 240,
      "Ê": 241,
      "Ë": 242,
      "Ì": 243,
      "Í": 244,
      "Î": 245,
      "Ï": 246,
      "Ð": 247,
      "Ñ": 248,
      "Ò": 249,
      "Ó": 250,
      "Ô": 251,
      "Õ": 252,
      "Ö": 253,
      "×": 254,
      "Ø": 255,
      "Ù": 256,
      "Ú": 257,
      "Û": 258,
      "Ü": 259,
      "Ý": 260,
      "Þ": 261,
      "ß": 262,
      "à": 263,
      "á": 264,
      "â": 265,
      "ã": 266,
      "ä": 267,
      "å": 268,
      "æ": 269,
      "ç": 270,
      "è": 271,
      "é": 272,
      "ê": 273,
      "ë": 274,
      "ì": 275,
      "í": 276,
      "î": 277,
      "ï": 278,
      "ð": 279,
      "ñ": 280,
      "ò": 281,
      "ó": 282,
      "ô": 283,
      "õ": 284,
      "ö": 285,
      "÷": 286,
      "ø": 287,
      "ù": 288,
      "ú": 289,
      "û": 290,
      "ü": 291,
      "ý": 292,
      "þ": 293,
      "ÿ": 294,
      "Ā": 295,
      "ā": 296,
      "Ă": 297,
      "ă": 298,
      "Ą": 299,
      "ą": 300,
      "Ć": 301,
      "ć": 302,
      "Ĉ": 303,
      "ĉ": 304,
      "Ċ": 305,
      "ċ": 306,
      "Č": 307,
      "č": 308,
      "Ď": 309,
      "ď": 310,
      "Đ": 311,
      "đ": 312,
      "Ē": 313,
      "ē": 314,
      "Ĕ": 315,
      "ĕ": 316,
      "Ė": 317,
      "ė": 318,
      "Ę": 319,
      "ę": 320,
      "Ě": 321,
      "ě": 322,
      "Ĝ": 323,
      "ĝ": 324,
      "Ğ": 325,
      "ğ": 326,
      "Ġ": 327,
      "ġ": 328,
      "Ģ": 329,
      "ģ": 330,
      "Ĥ": 331,
      "ĥ": 332,
      "Ħ": 333,
      "ħ": 334,
      "Ĩ": 335,
      "ĩ": 336,
      "Ī": 337,
      "ī": 338,
      "Ĭ": 339,
      "ĭ": 340,
      "Į": 341,
      "į": 342,
      "İ": 343,
      "ı": 344,
      "Ĳ": 345,
      "ĳ": 346,
      "Ĵ": 347,
      "ĵ": 348,
      "Ķ": 349,
      "ķ": 350,
      "ĸ": 351,
      "Ĺ": 352,
      "ĺ": 353,
      "Ļ": 354,
      "ļ": 355,
      "Ľ": 356,
      "ľ": 357,
      "Ŀ": 358,
      "ŀ": 359,
      "Ł": 360,
      "ł": 361,
      "Ń": 362,
      "Ġ#": 363,
      "Ġ##": 364,
      "Ġì": 365,
      "Ġë": 366,
      "ìĿ": 367,
      "íķ": 368,
      "Ġê": 369,
      "ëĭ": 370,
      "ìĹ": 371,
      "Ġí": 372,
      "Ġ##.": 373,
      "ëĭ¤": 374,
      "ëĬ": 375,
      "ìĿ´": 376,
      "ê³": 377,
      "ëĬĶ": 378,
      "ìĹĲ": 379,
      "ìĦ": 380,
      "ĠìĿ": 381,
      "ìł": 382,
      "ìĿĺ": 383,
      "ê°": 384,
      "íķĺ": 385,
      "ë¡": 386,
      "ìĿĦ": 387,
      "Ġìŀ": 388,
      "ì§": 389,
      "ìŀ": 390,
      "Ġ##,": 391,
      "ë¡ľ": 392,
      "íķľ": 393,
      "ë¥": 394,
      "ê³ł": 395,
      "ìľ": 396,
      "¸°": 397,
      "Ġìł": 398,
      "ìĭ": 399,
      "ëı": 400,
      "ìķ": 401,
      "ê°Ģ": 402,
      "Ĥ¬": 403,
      "ì§Ģ": 404,
      "Ġìķ": 405,
      "ìļ": 406,
      "Ġê°": 407,
      "ìĦľ": 408,
      "ìĿĢ": 409,
      "ĠìĿ´": 410,
      "ë¦": 411,
      "ê²": 412,
      "ë¥¼": 413,
      "ĮĢ": 414,
      "Ġê²": 415,
      "Ġë°": 416,
      "ëĵ": 417,
      "ëıĦ": 418,
      "ê¸°": 419,
      "êµ": 420,
      "ĠìĹ": 421,
      "ĸ´": 422,
      "ìľ¼": 423,
      "ëĤ": 424,
      "Īĺ": 425,
      "ĠìŀĪ": 426,
      "íķ´": 427,
      "Ġìĭ": 428,
      "Ġë§": 429,
      "ë§": 430,
      "ë¦¬": 431,
      "ìĬ": 432,
      "Ġì§": 433,
      "ëł": 434,
      "ë©": 435,
      "Ġëĭ": 436,
      "ìĽ": 437,
      "Ġ1": 438,
      "Ġê³": 439,
      "Ġê·": 440,
      "ĠìĦ": 441,
      "ĠëĤ": 442,
      "ìĿ¸": 443,
      "Ŀ¼": 444,
      "ĥģ": 445,
      "ë¶": 446,
      "ìľ¼ë¡ľ": 447,
      "ìĸ´": 448,
      "Ġë³": 449,
      "ê³¼": 450,
      "ìŀĲ": 451,
      "Ġ##)": 452,
      "ëĿ¼": 453,
      "ë³": 454,
      "ë°": 455,
      "ë¬": 456,
      "ìĤ¬": 457,
      "ìĭľ": 458,
      "£¼": 459,
      "ëĲ": 460,
      "Ġê·¸": 461,
      "âĢ": 462,
      "ìĹĲìĦľ": 463,
      "Ġìľ": 464,
      "ĠìĤ¬": 465,
      "ìĺ": 466,
      "ĠìĪĺ": 467,
      "ëĭĪ": 468,
      "ĠëĮĢ": 469,
      "ëĵ¤": 470,
      "Ġìĺ": 471,
      "íĸ": 472,
      "ëħ": 473,
      "ìłģ": 474,
      "ëĤĺ": 475,
      "Ġë¶": 476,
      "íĻ": 477,
      "ê²Į": 478,
      "Ġ2": 479,
      "Ġêµ": 480,
      "ëŁ": 481,
      "ëŀ": 482,
      "ìŀ¥": 483,
      "íĺ": 484,
      "ìłķ": 485,
      "ìĬ¤": 486,
      "Ġíķĺ": 487,
      "Ġëª": 488,
      "ì²": 489,
      "ìĻ": 490,
      "Ġëĵ": 491,
      "ìĥģ": 492,
      "Ġëı": 493,
      "ìĦ±": 494,
      "ëį": 495,
      "ë©´": 496,
      "Ġê°Ģ": 497,
      "ì¹": 498,
      "Ġê²ĥ": 499,
      "Ġ##(": 500,
      "Ġì§Ģ": 501,
      "ë¶Ģ": 502,
      "ëĮĢ": 503,
      "Ġíķ": 504,
      "ìĽĲ": 505,
      "Ġìļ": 506,
      "ĨĮ": 507,
      "ìķĦ": 508,
      "ìłľ": 509,
      "Ġíķľ": 510,
      "ìĹ¬": 511,
      "ë²": 512,
      "ĠìķĦ": 513,
      "´Ģ": 514,
      "ëħĦ": 515,
      "Ġê¸°": 516,
      "ëª": 517,
      "¤ĳ": 518,
      "¹Ħ": 519,
      "Ġëĭ¤": 520,
      "¡°": 521,
      "Ġìĭľ": 522,
      "ë§Į": 523,
      "ë¯": 524,
      "Ġë¬": 525,
      "ĥĿ": 526,
      "ìļ©": 527,
      "ĠíĻ": 528,
      "ìĹĪ": 529,
      "ìĿ¼": 530,
      "ļĮ": 531,
      "Ġë³´": 532,
      "ìĻĢ": 533,
      "ĠìłĦ": 534,
      "êµ¬": 535,
      "Ġíĺ": 536,
      "Ġìłķ": 537,
      "íĥ": 538,
      "ìĪĺ": 539,
      "ëĲĺ": 540,
      "ê±": 541,
      "ìļĶ": 542,
      "ê¸": 543,
      "ĠëĤĺ": 544,
      "ĠìŀĲ": 545,
      "íĻĶ": 546,
      "ì£¼": 547,
      "êµŃ": 548,
      "Ġìłľ": 549,
      "ĠâĢ": 550,
      "íĸĪ": 551,
      "ĠìľĦ": 552,
      "ê·": 553,
      "ìłĦ": 554,
      "Ġì£¼": 555,
      "íļĮ": 556,
      "ë³´": 557,
      "ë£": 558,
      "ëĭĪëĭ¤": 559,
      "ĠìĿ¼": 560,
      "Ġê²½": 561,
      "ĠëĲ": 562,
      "íĬ": 563,
      "ĠìĿĺ": 564,
      "ëıĻ": 565,
      "ë©°": 566,
      "Ġì¤ĳ": 567,
      "ì¹ĺ": 568,
      "ì°": 569,
      "ë¬¸": 570,
      "Ġì°": 571,
      "Ġì²": 572,
      "Ġê±": 573,
      "ĠìĿ¸": 574,
      "Ĥ°": 575,
      "Ġ##âĢ": 576,
      "Ĩµ": 577,
      "ìļ°": 578,
      "ê³Ħ": 579,
      "Ġëĵ±": 580,
      "ìķ¼": 581,
      "Ġê³ł": 582,
      "ëŁ¬": 583,
      "íķł": 584,
      "Ġë¶Ģ": 585,
      "íĬ¸": 586,
      "Ġìĸ´": 587,
      "ìĨĮ": 588,
      "00": 589,
      "Ġ3": 590,
      "ê°Ħ": 591,
      "ìĭł": 592,
      "Ġë²": 593,
      "íĦ": 594,
      "ķĮ": 595,
      "Ġìĥģ": 596,
      "ê¹": 597,
      "Ġì¹": 598,
      "Ġì¶": 599,
      "ëĵľ": 600,
      "Ġëį": 601,
      "ì§Ħ": 602,
      "ĽĦ": 603,
      "ëį°": 604,
      "ëªħ": 605,
      "íķĻ": 606,
      "ìĸ": 607,
      "Ġìľł": 608,
      "Ġë¯": 609,
      "ĠìķĬ": 610,
      "ì¶": 611,
      "Ġëª¨": 612,
      "ìĹħ": 613,
      "¦Ŀ": 614,
      "Ĩį": 615,
      "Ġê³µ": 616,
      "Ġíı": 617,
      "ê´Ģ": 618,
      "ëł¤": 619,
      "íĦ°": 620,
      "ëĲľ": 621,
      "Ġê´Ģ": 622,
      "ìĤ°": 623,
      "ĠìĬ": 624,
      "Ġíķ´": 625,
      "ŀĪ": 626,
      "ì¡°": 627,
      "ë¹Ħ": 628,
      "ìĽĶ": 629,
      "Ġíĸ": 630,
      "ìľĦ": 631,
      "Ġë§Ī": 632,
      "Ġë¹Ħ": 633,
      "íĶ": 634,
      "ìĬµ": 635,
      "ë¥´": 636,
      "ĠëķĮ": 637,
      "Ġì¡°": 638,
      "ĠìĨĮ": 639,
      "ĠìĹĨ": 640,
      "ë¬´": 641,
      "ĠëĤ´": 642,
      "ì²´": 643,
      "ìĺĢ": 644,
      "ĠìĹ°": 645,
      "íĸī": 646,
      "ĠìĻ": 647,
      "ë§Ī": 648,
      "ê¹Į": 649,
      "ê±°": 650,
      "íĮ": 651,
      "ìĦ¸": 652,
      "ĠìĽ": 653,
      "íŀĪ": 654,
      "Ġêµ¬": 655,
      "Ġìĸ": 656,
      "ë¶Ħ": 657,
      "ĠëĬ": 658,
      "Ī¬": 659,
      "ĠìĹ¬": 660,
      "ĠìĦľ": 661,
      "ĠëıĦ": 662,
      "ìĦł": 663,
      "ĠíĶ": 664,
      "ìĭĿ": 665,
      "ë¯¸": 666,
      "ëĭ¨": 667,
      "ĠìĥĿ": 668,
      "ĠíĮ": 669,
      "ìĿĮ": 670,
      "ëł¥": 671,
      "Ġê°ľ": 672,
      "íĥĢ": 673,
      "íı": 674,
      "Ġë°ľ": 675,
      "êµĲ": 676,
      "ë£Į": 677,
      "Ġìĭł": 678,
      "íĹ": 679,
      "Ġê¸": 680,
      "ë¯¼": 681,
      "Ġì¢": 682,
      "Ġ(": 683,
      "Ġìĺ¤": 684,
      "Ġë§Į": 685,
      "ìķĪ": 686,
      "ê³µ": 687,
      "ĠêµŃ": 688,
      "ìŀ¬": 689,
      "ĠëĶ": 690,
      "ë¬¼": 691,
      "ìĥĿ": 692,
      "ĠëĲĺ": 693,
      "ĳĲ": 694,
      "ĠëıĻ": 695,
      "ëĭ¹": 696,
      "íķľëĭ¤": 697,
      "Ġ4": 698,
      "ì¡": 699,
      "Ġëħ": 700,
      "Ġë¯¸": 701,
      "ê°ľ": 702,
      "Ġìķ½": 703,
      "ê²½": 704,
      "ìľł": 705,
      "ìĹŃ": 706,
      "Ġíĥ": 707,
      "ì§Ģë§Į": 708,
      "ë²ķ": 709,
      "Ġìļ°": 710,
      "Ġë°Ķ": 711,
      "ìĭ¤": 712,
      "ĳľ": 713,
      "Ġ5": 714,
      "Ġë§Ĳ": 715,
      "ìĪ": 716,
      "ê¸Ī": 717,
      "Ġë¬´": 718,
      "in": 719,
      "ĠìķĪ": 720,
      "Ġìĺģ": 721,
      "ëŀĺ": 722,
      "ĺĲ": 723,
      "ĠìĦł": 724,
      "ĠìĦ±": 725,
      "ëįĺ": 726,
      "ĠìĦ¸": 727,
      "Ġ20": 728,
      "ìļ´": 729,
      "ìķ½": 730,
      "Ġ19": 731,
      "ĠëĮĢíķľ": 732,
      "ĠíĬ": 733,
      "Ġë¬¸": 734,
      "ê°ģ": 735,
      "ĠíĨµ": 736,
      "er": 737,
      "Ġë°©": 738,
      "ģ¬": 739,
      "Ġt": 740,
      "Ġ##-": 741,
      "ìĹ°": 742,
      "ìĬµëĭĪëĭ¤": 743,
      "ìĹĲê²Į": 744,
      "Ġë©": 745,
      "ìĺ¤": 746,
      "ĠìļĶ": 747,
      "ĠìĬ¤": 748,
      "ëĤ´": 749,
      "ë°ĺ": 750,
      "ë¡Ŀ": 751,
      "ĠëĺĲ": 752,
      "Ġ.": 753,
      "ãĢ": 754,
      "ëĦ": 755,
      "ìŀĳ": 756,
      "ìŀħ": 757,
      "ì¤ĳ": 758,
      "µľ": 759,
      "Ġ##âĢĻ": 760,
      "ĠëĦ": 761,
      "ë°©": 762,
      "Ġê±°": 763,
      "Ġì§Ħ": 764,
      "Ġê¹": 765,
      "ëŀĮ": 766,
      "Ġë¶Ħ": 767,
      "íĺ¸": 768,
      "Ġì´": 769,
      "Ġìŀ¥": 770,
      "Ġê°Ļ": 771,
      "Ġìĭ¤": 772,
      "íĨµ": 773,
      "ĠìĤ": 774,
      "ìĺģ": 775,
      "ê±´": 776,
      "ê·¸": 777,
      "ë¥¸": 778,
      "ĠâĢĺ": 779,
      "an": 780,
      "íİ": 781,
      "ĠêµĲ": 782,
      "Ġíķľëĭ¤": 783,
      "¶Į": 784,
      "Ĩł": 785,
      "¤Ģ": 786,
      "Ġë°ı": 787,
      "ĠíĪ¬": 788,
      "Ġê²°": 789,
      "ì¦Ŀ": 790,
      "ĠìĺĪ": 791,
      "ìĸĳ": 792,
      "ì°¨": 793,
      "íĹĺ": 794,
      "on": 795,
      "Â·": 796,
      "ìķĺ": 797,
      "ĠíĻĺ": 798,
      "ĠìĽĲ": 799,
      "ëĬ¥": 800,
      "ĠìĹĲ": 801,
      "ìĭ¬": 802,
      "ëĬĶëį°": 803,
      "Ġ##?": 804,
      "Ġìłģ": 805,
      "Ġëĵ¤": 806,
      "ĠëĶ°": 807,
      "íĴ": 808,
      "ĠíĽĦ": 809,
      "ĠíĺĦ": 810,
      "Ġë¶Ī": 811,
      "Ġë§İ": 812,
      "ĠëįĶ": 813,
      "ãħ": 814,
      "Ġ6": 815,
      "ìĨį": 816,
      "íķ©": 817,
      "Ġê²½ìļ°": 818,
      "íĽĦ": 819,
      "Ġ:": 820,
      "ĠìķĮ": 821,
      "Ġê°ķ": 822,
      "ëłĪ": 823,
      "íĤ": 824,
      "ë°ľ": 825,
      "Ġ##'": 826,
      "Ġìµľ": 827,
      "íĭ": 828,
      "he": 829,
      "ëĶ": 830,
      "ĠìłĢ": 831,
      "Ġ-": 832,
      "Ġ##:": 833,
      "Ġ##Â·": 834,
      "Ġê³¼": 835,
      "Ġ0": 836,
      "ëĭ¤ê³ł": 837,
      "Ġê°Ĳ": 838,
      "ì§Ī": 839,
      "ìŀĦ": 840,
      "ê¹Įì§Ģ": 841,
      "ì¢": 842,
      "±ħ": 843,
      "ëĭ¤ëĬĶ": 844,
      "Ġë°ĺ": 845,
      "Ġì¹ĺ": 846,
      "Ġë¦": 847,
      "ëĿ¼ê³ł": 848,
      "Ġë¡": 849,
      "íħ": 850,
      "íĺķ": 851,
      "ĠíĬ¹": 852,
      "Ġëĭ¨": 853,
      "ëĤľ": 854,
      "íĳľ": 855,
      "Ġëħ¸": 856,
      "ìłĲ": 857,
      "ĠìĤ¬ëŀĮ": 858,
      "ëª¨": 859,
      "Ġê³Ħ": 860,
      "½Ķ": 861,
      "ë©´ìĦľ": 862,
      "Ġ201": 863,
      "Ġ##%": 864,
      "ë£¨": 865,
      "ì§ģ": 866,
      "ë³¸": 867,
      "ĠëĤ¨": 868,
      "Ġëĭ¹": 869,
      "Ġë°Ľ": 870,
      "Ġìŀ¬": 871,
      "ĠìĹŃ": 872,
      "êµ°": 873,
      "ì¶ľ": 874,
      "ë¦°": 875,
      "Ġ##\"": 876,
      "ìľ¼ë©°": 877,
      "íĴĪ": 878,
      "ë¶ĢíĦ°": 879,
      "ê²©": 880,
      "ĠëĬĶ": 881,
      "Ġ'": 882,
      "Ġì¦Ŀ": 883,
      "Ġìŀĳ": 884,
      "Ġíİ": 885,
      "Ġì°¨": 886,
      "Ġ7": 887,
      "ëł¨": 888,
      "or": 889,
      "ĠëĨ": 890,
      "Ġ##âĢĿ": 891,
      "Ġë¹": 892,
      "Ġ\"": 893,
      "ìĪł": 894,
      "ëŁī": 895,
      "ìĦĿ": 896,
      "ê¸ī": 897,
      "Ġíķł": 898,
      "ì¢ħ": 899,
      "Ġê±´": 900,
      "ĠìĦ¤": 901,
      "ëŁ°": 902,
      "ĠíĸĪ": 903,
      "ìĦ¤": 904,
      "Ġìŀħ": 905,
      "íĶĦ": 906,
      "ì´": 907,
      "Ġê°Ħ": 908,
      "íĥľ": 909,
      "ì¤Ģ": 910,
      "íģ¬": 911,
      "íĨł": 912,
      "ê°Ĳ": 913,
      "íı¬": 914,
      "ê¶Į": 915,
      "Ġì¶Ķ": 916,
      "Ġíı¬": 917,
      "ĠíķĻ": 918,
      "ĠíĻķ": 919,
      "Ġë¨": 920,
      "ĠëĳĲ": 921,
      "ĠìľĦíķ´": 922,
      "Ġë¡ľ": 923,
      "at": 924,
      "ĥĪ": 925,
      "ì²Ń": 926,
      "ëĿ¼ëĬĶ": 927,
      "ì²ĺ": 928,
      "ĠìŀĦ": 929,
      "Ġë§¤": 930,
      "ĠíĻĺìŀĲ": 931,
      "Ġ##/": 932,
      "Ġë¦¬": 933,
      "ìľ¡": 934,
      "al": 935,
      "Ġ8": 936,
      "ë²Ī": 937,
      "ëĵł": 938,
      "Ġë°°": 939,
      "íĺĦ": 940,
      "ĠíĶ¼": 941,
      "ĠíĿ": 942,
      "ĠS": 943,
      "ëĳĲ": 944,
      "Ġ200": 945,
      "íĤ¤": 946,
      "ĠìķĦëĭĪ": 947,
      "Ġë¬¼": 948,
      "ì¦": 949,
      "ar": 950,
      "Ġ##]": 951,
      "ìļ¸": 952,
      "ë¦½": 953,
      "en": 954,
      "íķ¨": 955,
      "ĠìĤ¬ìļ©": 956,
      "ĠìĪ": 957,
      "Ġ10": 958,
      "ë¡ł": 959,
      "ĠëķĮë¬¸": 960,
      "Ġíĸī": 961,
      "ì²ľ": 962,
      "íĻĺ": 963,
      "ĠíļĮ": 964,
      "ê²°": 965,
      "´ĳ": 966,
      "ì¸": 967,
      "Ġìĭ¬": 968,
      "ìłĢ": 969,
      "ëŀĢ": 970,
      "Ġì¢ĭ": 971,
      "Ġì¶ľ": 972,
      "ĠC": 973,
      "ëĶĶ": 974,
      "Ġíıī": 975,
      "Ġê²Į": 976,
      "ĠíķĦ": 977,
      "ĠâĢĭ": 978,
      "íĸ¥": 979,
      "ĠA": 980,
      "Ġ9": 981,
      "ê°ķ": 982,
      "ĠâĢľ": 983,
      "ĠëĪ": 984,
      "Ġíķ¨": 985,
      "ê²ł": 986,
      "ëł¹": 987,
      "íļ": 988,
      "Ġâ": 989,
      "ìħ": 990,
      "Ġê¹Ģ": 991,
      "ĠíĶĦ": 992,
      "Ġëª»": 993,
      "ê»": 994,
      "ë³µ": 995,
      "Ġì§ģ": 996,
      "ĠìĿ´ìĥģ": 997,
      "ì¹´": 998,
      "ìłĪ": 999,
      "es": 1000,
      "Ġ##ãĢ": 1001,
      "ĥī": 1002,
      "Ġì°¸": 1003,
      "ĠëĲľ": 1004,
      "ĠìĨ": 1005,
      "Ġëªħ": 1006,
      "ĠíĮĮ": 1007,
      "ë²Ħ": 1008,
      "Ġì§ĳ": 1009,
      "Ġìļ´": 1010,
      "íĮĮ": 1011,
      "ĠìĤ´": 1012,
      "Ġìļ°ë¦¬": 1013,
      "Ġëį°": 1014,
      "ë°Ķ": 1015,
      "ê·¼": 1016,
      "íĿ": 1017,
      "ìĨ": 1018,
      "ë³ĳ": 1019,
      "ì¼": 1020,
      "Ġë³Ģ": 1021,
      "ĠíĹ": 1022,
      "ĠìłĲ": 1023,
      "ëĵ±": 1024,
      "ì¡±": 1025,
      "Ġthe": 1026,
      "Ġ)": 1027,
      "ë¥ĺ": 1028,
      "ĠëĿ¼": 1029,
      "ĠíĪ¬ìĹ¬": 1030,
      "Ġì´Ī": 1031,
      "ĠìĥĿê°ģ": 1032,
      "íĭ°": 1033,
      "ĠíĻľ": 1034,
      "íķ´ìĦľ": 1035,
      "íķŃ": 1036,
      "¸Į": 1037,
      "Ġëĵľ": 1038,
      "Ġìĸĳ": 1039,
      "Ġëĭ¤ë¥¸": 1040,
      "ë¦Ħ": 1041,
      "Ġë³¸": 1042,
      "íĶ¼": 1043,
      "Ġê°ģ": 1044,
      "ĠëĶ°ëĿ¼": 1045,
      "ĠëĤĺíĥĢ": 1046,
      "ãħĭ": 1047,
      "Ġì²ĺ": 1048,
      "ìĶ": 1049,
      "ë³Ħ": 1050,
      "Ġëĭ¬": 1051,
      "íĮĲ": 1052,
      "Ġìĸ´ë": 1053,
      "ĠìĿĦ": 1054,
      "Ġs": 1055,
      "Ġê·¼": 1056,
      "Ġëł": 1057,
      "·¨": 1058,
      "Ġë³µ": 1059,
      "ê»ĺ": 1060,
      "¤Ħ": 1061,
      "Ġ##!": 1062,
      "ë§¤": 1063,
      "ìĿ´ëĤĺ": 1064,
      "ì±ħ": 1065,
      "ĠìĤ°": 1066,
      "Ġëģ": 1067,
      "Ġìļ©": 1068,
      "ĠìĹ°êµ¬": 1069,
      "Ġo": 1070,
      "Ġìĺ¬": 1071,
      "Ġì²Ń": 1072,
      "ëŀĳ": 1073,
      "Ġëª©": 1074,
      "íİ¸": 1075,
      "is": 1076,
      "it": 1077,
      "ĠíĥĢ": 1078,
      "ĠìĻ¸": 1079,
      "Ġìŀĺ": 1080,
      "íĪ¬": 1081,
      "Ġê·¸ë¦¬": 1082,
      "Ġíģ": 1083,
      "ed": 1084,
      "ëª©": 1085,
      "Ġë©´": 1086,
      "Ġa": 1087,
      "ĠíĻĶ": 1088,
      "Ġì¢ħ": 1089,
      "ĠìĿĢ": 1090,
      "ëŁ¼": 1091,
      "ëĭ¬": 1092,
      "Ġë³ĳ": 1093,
      "ê²ĥ": 1094,
      "ĠM": 1095,
      "20": 1096,
      "ëħ¸": 1097,
      "ì½Ķ": 1098,
      "Ġê·¸ëŁ¬": 1099,
      "Ġíķ©": 1100,
      "ëįĶ": 1101,
      "ìĿĳ": 1102,
      "íĻ©": 1103,
      "ëĤł": 1104,
      "ĠëĨĴ": 1105,
      "ĠãĢ": 1106,
      "ëłĩ": 1107,
      "ëĤ¨": 1108,
      "ìĻ¸": 1109,
      "ìł¸": 1110,
      "ë°°": 1111,
      "Ġì²´": 1112,
      "Ġíĺķ": 1113,
      "ĠìĹ´": 1114,
      "ĠT": 1115,
      "ĠëĭĪ": 1116,
      "ì§ĳ": 1117,
      "Ġê¸Ī": 1118,
      "ëĦ¤": 1119,
      "ĠëĺĲëĬĶ": 1120,
      "ĠìĥĪ": 1121,
      "Ġíļ": 1122,
      "Ġíĳľ": 1123,
      "Ġë²ķ": 1124,
      "ĠíķĦìļĶ": 1125,
      "ë³´ëĭ¤": 1126,
      "ë¦¼": 1127,
      "ìŀħëĭĪëĭ¤": 1128,
      "±Ħ": 1129,
      "Ġì¡": 1130,
      "Ġíģ¬": 1131,
      "ĠíĨµíķ´": 1132,
      "ìĬ¹": 1133,
      "Ģë¡ľ": 1134,
      "--": 1135,
      "Ġm": 1136,
      "Ġ##~": 1137,
      "ĠíĮĲ": 1138,
      "Ġíĺ¸": 1139,
      "Ġìĸ´ëĸ": 1140,
      "ĠìĨį": 1141,
      "Ġw": 1142,
      "Ġ,": 1143,
      "Ġë¬¸ìłľ": 1144,
      "ë§Ŀ": 1145,
      "ĠìĿĮ": 1146,
      "ëıĦë¡Ŀ": 1147,
      "ë¨": 1148,
      "ëĲľëĭ¤": 1149,
      "Ġë¥": 1150,
      "ĠP": 1151,
      "íħĮ": 1152,
      "ìĽĮ": 1153,
      "ì´Ī": 1154,
      "ëĭ´": 1155,
      "íĺĳ": 1156,
      "Ġìĭľìŀĳ": 1157,
      "Ġc": 1158,
      "Ġíİ¸": 1159,
      "ìĹ¼": 1160,
      "ìķł": 1161,
      "íĻľ": 1162,
      "Ġê´Ģëł¨": 1163,
      "íķ´ìķ¼": 1164,
      "ĠB": 1165,
      "Ġì»": 1166,
      "ì¦Ī": 1167,
      "Ġê°ĢëĬ¥": 1168,
      "Ġ12": 1169,
      "ê±°ëĤĺ": 1170,
      "ìĤ": 1171,
      "ëĭĺ": 1172,
      "ìĥī": 1173,
      "ic": 1174,
      "Ġìĵ": 1175,
      "ë¡Ģ": 1176,
      "ìŀĪ": 1177,
      "ì°°": 1178,
      "ëıħ": 1179,
      "Ġíķ¨ê»ĺ": 1180,
      "ë¹": 1181,
      "Ġëıħ": 1182,
      "ĠìĭĿ": 1183,
      "ĠíķŃ": 1184,
      "ìĺĪ": 1185,
      "Ġë¯¼": 1186,
      "ĠíķĺëĤĺ": 1187,
      "íĺĪ": 1188,
      "Ġì§ĢìĹŃ": 1189,
      "Ġì¹´": 1190,
      "Ġë²Ī": 1191,
      "ª½": 1192,
      "Ġëĸ": 1193,
      "ĠíĴ": 1194,
      "as": 1195,
      "ĠìľĦíķľ": 1196,
      "Ġë°ķ": 1197,
      "ĠI": 1198,
      "ì¡Į": 1199,
      "ìĸµ": 1200,
      "íģ": 1201,
      "Ġp": 1202,
      "Ġ11": 1203,
      "Ġë¨¹": 1204,
      "Ġf": 1205,
      "ĠìĨĲ": 1206,
      "Ġ|": 1207,
      "Ġì§Ī": 1208,
      "ë³Ģ": 1209,
      "ĠíķľêµŃ": 1210,
      "ëģ": 1211,
      "Ġê·¸ë¦¬ê³ł": 1212,
      "ou": 1213,
      "Ġê²Ģ": 1214,
      "Ġë§ŀ": 1215,
      "ìĺ¨": 1216,
      "Ġì´Ŀ": 1217,
      "Ġìķŀ": 1218,
      "Ġê°Ģìŀ¥": 1219,
      "Ġì¦": 1220,
      "ĠëıĮ": 1221,
      "ì¶ķ": 1222,
      "ŀĺ": 1223,
      "ĠëĴ": 1224,
      "ë§Ĳ": 1225,
      "ion": 1226,
      "ìĨ¡": 1227,
      "ĠL": 1228,
      "re": 1229,
      "Ġíĥľ": 1230,
      "19": 1231,
      "Ġìĸ¸": 1232,
      "ĠìĤ¬íļĮ": 1233,
      "ìľ¨": 1234,
      "ìĸ´ìĦľ": 1235,
      "ing": 1236,
      "and": 1237,
      "Ġê°Ģì§Ģ": 1238,
      "íĥĿ": 1239,
      "ĠD": 1240,
      "ì»": 1241,
      "Ġíļ¨": 1242,
      "ë´": 1243,
      "Ġëĭ¤ìĿĮ": 1244,
      "ë¯Ģë¡ľ": 1245,
      "íļį": 1246,
      "ĠìĿ´íĽĦ": 1247,
      "ĠìłķëıĦ": 1248,
      "ìĽĢ": 1249,
      "Ġê±¸": 1250,
      "Łģ": 1251,
      "ë¸Į": 1252,
      "Ġì¶©": 1253,
      "ìľĦìĽĲ": 1254,
      "Ġì±ħ": 1255,
      "ìķħ": 1256,
      "íıī": 1257,
      "Ŀ½": 1258,
      "le": 1259,
      "Ġì½Ķ": 1260,
      "Ġì·¨": 1261,
      "Ġê·ľ": 1262,
      "Ġë§Įëĵ¤": 1263,
      "Ġof": 1264,
      "ëĥ": 1265,
      "ì£": 1266,
      "ë°ķ": 1267,
      "Ġì¤Ħ": 1268,
      "ì³": 1269,
      "Ġê¶Į": 1270,
      "ê´ĳ": 1271,
      "íķĻêµĲ": 1272,
      "ì¶Ķ": 1273,
      "ĠF": 1274,
      "Ġb": 1275,
      "Ġê²°ê³¼": 1276,
      "ìŁģ": 1277,
      "ro": 1278,
      "Ĺĭ": 1279,
      "ìĸ¸": 1280,
      "ì¡´": 1281,
      "ĠR": 1282,
      "ìķ¡": 1283,
      "ëĬĶëĭ¤": 1284,
      "Ġë¶ģ": 1285,
      "ĠëĺĲíķľ": 1286,
      "ĠëĲľëĭ¤": 1287,
      "ìľ¼ëĤĺ": 1288,
      "ëĿ½": 1289,
      "ì²ĺëŁ¼": 1290,
      "ê²¬": 1291,
      "ĠìĪľ": 1292,
      "ĠìķĦìĿ´": 1293,
      "ĠëĮĢíķ´": 1294,
      "ëħĢ": 1295,
      "Ġë¯¸êµŃ": 1296,
      "ì§¸": 1297,
      "ĠíĨł": 1298,
      "Ġì¤Ģ": 1299,
      "Ġë©Ķ": 1300,
      "Ġìĭľê°Ħ": 1301,
      "Ġin": 1302,
      "Ġê´ĳ": 1303,
      "ĠëĦĪ": 1304,
      "ë¶ģ": 1305,
      "íİĺ": 1306,
      "ĠìĻĦ": 1307,
      "Ġì£": 1308,
      "Ġëĭ´": 1309,
      "ĠíĺĪ": 1310,
      "Ġì°¾": 1311,
      "Ġë´": 1312,
      "Ġì¹ĺë£Į": 1313,
      "ĠëĴ¤": 1314,
      "Ġ18": 1315,
      "Ġíħ": 1316,
      "ëĲł": 1317,
      "ìĬ¤íĬ¸": 1318,
      "ĠëĪĦ": 1319,
      "ìª½": 1320,
      "ĠëĤł": 1321,
      "ìłĳ": 1322,
      "ĠìĹħ": 1323,
      "ëĦĪ": 1324,
      "Ġêµ°": 1325,
      "ë©Ķ": 1326,
      "ĠëĬĲ": 1327,
      "ĠëŁ": 1328,
      "ê·¹": 1329,
      "ĠG": 1330,
      "âĹĭ": 1331,
      "Ġì¦Ŀê°Ģ": 1332,
      "Ġê³³": 1333,
      "ëĭĪê¹Į": 1334,
      "ìĿµ": 1335,
      "ĠíĶĦë¡ľ": 1336,
      "ëķĮ": 1337,
      "Ġë°Ŀ": 1338,
      "Ġë²Ħ": 1339,
      "ĠH": 1340,
      "Ġì§ĢëĤľ": 1341,
      "ĠíĬ¸": 1342,
      "ĠêµĲìľ¡": 1343,
      "Ġë°ľìĥĿ": 1344,
      "ĠëłĪ": 1345,
      "Ġ15": 1346,
      "Ġì¹ľ": 1347,
      "ë°Ľ": 1348,
      "Ġì¡´": 1349,
      "ëĵĿ": 1350,
      "Ġì±Ħ": 1351,
      "Ġìĵ°": 1352,
      "Ġëª¨ëĳĲ": 1353,
      "Ġê·¸ëŁ°": 1354,
      "Ġd": 1355,
      "ĠêµŃê°Ģ": 1356,
      "ĠìĤ¬ìĭ¤": 1357,
      "ĠK": 1358,
      "ëĮĢë¡ľ": 1359,
      "Ġì°½": 1360,
      "Ġíĺĳ": 1361,
      "Ġê¸¸": 1362,
      "Ġì²ľ": 1363,
      "ë¶Ī": 1364,
      "ĠëĪĪ": 1365,
      "ĠìĿ´ëŁ¬": 1366,
      "Ġ199": 1367,
      "Ġíģ°": 1368,
      "Ġ~": 1369,
      "ëĭĮ": 1370,
      "íĿ¬": 1371,
      "į¼": 1372,
      "ĠìłĪ": 1373,
      "Ġëª¨ëĵł": 1374,
      "ĠìĿ´ìļ©": 1375,
      "Ġìķ¼": 1376,
      "ëĤ¬": 1377,
      "¸Ķ": 1378,
      "ëĬĲ": 1379,
      "Ġì§Ģê¸Ī": 1380,
      "am": 1381,
      "Ġ[": 1382,
      "ì£¼ìĿĺ": 1383,
      "ë§ī": 1384,
      "Ġíĸ¥": 1385,
      "ãħĭãħĭ": 1386,
      "ĠìĤ¬ìĿ´": 1387,
      "Ġìĭ¶": 1388,
      "ìĶ¨": 1389,
      "ĠëĶĶ": 1390,
      "ëĭ¤ê°Ģ": 1391,
      "ê·ľ": 1392,
      "Ġì¤ĳìļĶ": 1393,
      "ìĪľ": 1394,
      "Ġì§Ħíĸī": 1395,
      "Ġëĭ¤ìĭľ": 1396,
      "Ġë¥¼": 1397,
      "Ġíŀĺ": 1398,
      "Ġê´Ģê³Ħ": 1399,
      "ĠêµŃë¯¼": 1400,
      "Ġë³¼": 1401,
      "ë²Ķ": 1402,
      "ĠìĦľìļ¸": 1403,
      "ĠíĺĦìŀ¬": 1404,
      "ìħĺ": 1405,
      "Ġìĺ¨": 1406,
      "Ġê·¸ëŁ¬ëĤĺ": 1407,
      "ĠìĦ¸ê³Ħ": 1408,
      "ĠN": 1409,
      "000": 1410,
      "ĠìĿ´ëŁ°": 1411,
      "į¨": 1412,
      "ì¹¨": 1413,
      "íķ©ëĭĪëĭ¤": 1414,
      "Ġ##..": 1415,
      "Ġìłķë¶Ģ": 1416,
      "ê²¨": 1417,
      "ë¥ł": 1418,
      "ĠìĿĺë£Į": 1419,
      "Ġand": 1420,
      "ìĹ´": 1421,
      "Ġëħ¼": 1422,
      "il": 1423,
      "Ġê·¸ëłĩ": 1424,
      "Ġì¸": 1425,
      "ìĹĨ": 1426,
      "Ġìĺģíĸ¥": 1427,
      "¿Ĳ": 1428,
      "Ġìĸ¼": 1429,
      "ĠëĮĢìĥģ": 1430,
      "Ġíı¬íķ¨": 1431,
      "ĠìĤ¼": 1432,
      "ê¸¸": 1433,
      "ìĤ´": 1434,
      "el": 1435,
      "Ġë§İìĿ´": 1436,
      "ìľ¼ë©´": 1437,
      "ë°±": 1438,
      "ĠìĿ¼ë³¸": 1439,
      "ĠìĥģíĻ©": 1440,
      "ĠíĹĪ": 1441,
      "ì³Ĳ": 1442,
      "ĠìĬ¹": 1443,
      "Ġìº": 1444,
      "Ġê¸Ģ": 1445,
      "ĠE": 1446,
      "Ġë°±": 1447,
      "ëĬĺ": 1448,
      "ê¸Ģ": 1449,
      "ëł¸": 1450,
      "ĠìĹ¬ëŁ¬": 1451,
      "ĠìĿĺë¯¸": 1452,
      "ĠëĨį": 1453,
      "ĠëĦ¤": 1454,
      "ëĬĶì§Ģ": 1455,
      "Ġh": 1456,
      "ì°½": 1457,
      "ĠëĲł": 1458,
      "ëŁ½": 1459,
      "ol": 1460,
      "et": 1461,
      "Ġìľ¼": 1462,
      "ĠìĻĢ": 1463,
      "ĠìŀĲìĭł": 1464,
      "Ġëŀ": 1465,
      "Ġíĭ": 1466,
      "íļ¨": 1467,
      "Ġëĵ±ìĿĺ": 1468,
      "ĠìĿ¼ë°ĺ": 1469,
      "ëĪ": 1470,
      "Ġì§ĢìĽĲ": 1471,
      "ì¸ł": 1472,
      "Ġë²ł": 1473,
      "Ġìī": 1474,
      "Ġëĵ¤ìĸ´": 1475,
      "om": 1476,
      "Ġìķł": 1477,
      "Ġëĭ¤ìĸĳ": 1478,
      "ac": 1479,
      "ĠëĦĺ": 1480,
      "Ġ##ãĢĭ": 1481,
      "ëŀľ": 1482,
      "ĠëģĿ": 1483,
      "ĠíĬ¹íŀĪ": 1484,
      "Ġëĳ": 1485,
      "Ġìłĳ": 1486,
      "ëħĲ": 1487,
      "¿ł": 1488,
      "ë¡ľìļ´": 1489,
      "Ġ16": 1490,
      "Ġ/": 1491,
      "ĠëĤ´ìļ©": 1492,
      "ëłĪìĿ´": 1493,
      "ìŀĲìĿĺ": 1494,
      "ëĭµ": 1495,
      "ent": 1496,
      "Ġâĸ": 1497,
      "ĠìĤ¬ìĹħ": 1498,
      "ī´": 1499,
      "ì¼Ģ": 1500,
      "íĶĮ": 1501,
      "Ġê°ĸ": 1502,
      "st": 1503,
      "ìķ¼ê¸°": 1504,
      "Ġ30": 1505,
      "Ġì£½": 1506,
      "ì²ł": 1507,
      "ìĸ´ìļĶ": 1508,
      "ĠíĦ": 1509,
      "Ġê°Ī": 1510,
      "Ġ!": 1511,
      "ëĿ¼ëıĦ": 1512,
      "10": 1513,
      "Ġe": 1514,
      "ìĻĶ": 1515,
      "ìĭłìĿĺ": 1516,
      "ê³¡": 1517,
      "ê·ł": 1518,
      "Ġêµ¬ìĦ±": 1519,
      "ëĨ": 1520,
      "ëĲĲ": 1521,
      "Ġë³Ħ": 1522,
      "ëĭ¤ë©´": 1523,
      "Ġíıīê°Ģ": 1524,
      "Ġ14": 1525,
      "Ġê¸ī": 1526,
      "Ġ13": 1527,
      "ĠìĺģíĻĶ": 1528,
      "ì¸µ": 1529,
      "Ġê·¸ëŀĺ": 1530,
      "ë¨¸": 1531,
      "íĹĪ": 1532,
      "Ġto": 1533,
      "ĠìĿ´ìķ¼ê¸°": 1534,
      "ì½": 1535,
      "Ġì¤ĳêµŃ": 1536,
      "ĠìłĦë¬¸": 1537,
      "ĠíĻľëıĻ": 1538,
      "Ġë£": 1539,
      "Ġìĸ´ëĸ¤": 1540,
      "íĨµëł¹": 1541,
      "ĠìĹĦ": 1542,
      "ĠìľĦíĹĺ": 1543,
      "Ġë°Ŀíĺ": 1544,
      "Ġë§ī": 1545,
      "ĠíĤ": 1546,
      "ìĭľê°Ħ": 1547,
      "Ġë§ĪìĿĮ": 1548,
      "ìĸ´ìķ¼": 1549,
      "íĥĦ": 1550,
      "Ġì¦ī": 1551,
      "ë¡ľìĦľ": 1552,
      "Ġì²ł": 1553,
      "ë²ł": 1554,
      "Ġë¶Ģë¶Ħ": 1555,
      "ê°Ģì§Ģ": 1556,
      "ĠW": 1557,
      "Ġì»¤": 1558,
      "ĠìĿ´ìľł": 1559,
      "ĠãĢĬ": 1560,
      "ĠëĤľ": 1561,
      "Ġ17": 1562,
      "Ġì½": 1563,
      "Ġê²½ìłľ": 1564,
      "Ġëľ": 1565,
      "íļĮìĿĺ": 1566,
      "ìĭľíĤ¤": 1567,
      "ë¶Ģë¶Ħ": 1568,
      "ĠëıĻìķĪ": 1569,
      "Ġl": 1570,
      "Ġë°©ë²ķ": 1571,
      "Ġê²½ê¸°": 1572,
      "ĠëĮĢíĳľ": 1573,
      "Ġn": 1574,
      "ĠíĮ¨": 1575,
      "Ġë¸Į": 1576,
      "ĠìĿ´ë£¨": 1577,
      "ìĦ¸ìļĶ": 1578,
      "Ġë³´ìĿ´": 1579,
      "ĠíĻķìĿ¸": 1580,
      "Ġë³´ê³ł": 1581,
      "Ġìŀ¡": 1582,
      "ĠìĻķ": 1583,
      "Ġì²«": 1584,
      "Ġìłķë³´": 1585,
      "ĠíĶĮ": 1586,
      "ëŀ¨": 1587,
      "Ġì¸¡": 1588,
      "Ġ##>": 1589,
      "id": 1590,
      "Ġë§Ľ": 1591,
      "ë¹ĦìĬ¤": 1592,
      "ëĤĺëĿ¼": 1593,
      "ë²Į": 1594,
      "ìĺ¬": 1595,
      "ê°Ī": 1596,
      "íĻķ": 1597,
      "ĠìľĦìĽĲ": 1598,
      "ĠëĬĺ": 1599,
      "ì°©": 1600,
      "Ġíļ¨ê³¼": 1601,
      "Ġëª¨ìĬµ": 1602,
      "Ġ||": 1603,
      "Ġìłķì±ħ": 1604,
      "Ġê¼": 1605,
      "ê²Ģ": 1606,
      "Ġê°ľë°ľ": 1607,
      "Ġê°ĻìĿ´": 1608,
      "Ġë¹ł": 1609,
      "ĠëĮĢíĨµëł¹": 1610,
      "ìį¨": 1611,
      "Ġì¶ķ": 1612,
      "ìµľ": 1613,
      "ĠìĿ´ë¦Ħ": 1614,
      "ãģ": 1615,
      "ì§ķ": 1616,
      "ìĻķ": 1617,
      "Ġìļ´ìĺģ": 1618,
      "Ġê¸°ìĪł": 1619,
      "ì¹ľ": 1620,
      "ĠO": 1621,
      "ê¸´": 1622,
      "Ġ<": 1623,
      "Ġê³¼ìłķ": 1624,
      "ĠíĻ©": 1625,
      "ëĥĲ": 1626,
      "Ġì²ĺìĿĮ": 1627,
      "ê·¸ëŀ¨": 1628,
      "ê¹Ģ": 1629,
      "201": 1630,
      "ĩ´": 1631,
      "ĠíħĮ": 1632,
      "Ġë³ĢíĻĶ": 1633,
      "ĠìķĮëł¤": 1634,
      "íĬ¹": 1635,
      "ĠíĽ": 1636,
      "Ġãħ": 1637,
      "Ġëªĩ": 1638,
      "Ġë¬¸íĻĶ": 1639,
      "Ġê¸°ìĹħ": 1640,
      "ĠëŃ": 1641,
      "ê°Ŀ": 1642,
      "Ġíľ": 1643,
      "Ġì¡´ìŀ¬": 1644,
      "Ġë²Ķ": 1645,
      "ĠìĿ´ë¯¸": 1646,
      "¾¸": 1647,
      "ì°¬": 1648,
      "ìķķ": 1649,
      "ìĹĶ": 1650,
      "ĠìŀĦìĥģ": 1651,
      "ë°Ģ": 1652,
      "ê¸°ê´Ģ": 1653,
      "ĠìķĦëĭĮ": 1654,
      "Ġê°ľìĿ¸": 1655,
      "ìķĶ": 1656,
      "Ġìķħ": 1657,
      "êµĲìľ¡": 1658,
      "ĠìĽĶ": 1659,
      "Ġëĭ¹ìĭľ": 1660,
      "ĠëĬ¥": 1661,
      "Ġë²Į": 1662,
      "ë´ī": 1663,
      "ĠíıĲ": 1664,
      "ìľ¼ë¯Ģë¡ľ": 1665,
      "Ġê¸°ë¡Ŀ": 1666,
      "ĠíıŃ": 1667,
      "ot": 1668,
      "Ġë¨¸": 1669,
      "ĠëĦĪë¬´": 1670,
      "Ġìĥģíĥľ": 1671,
      "Ġíĺ¼": 1672,
      "íķĦ": 1673,
      "ĠìĦ¤ëªħ": 1674,
      "ĠìĬµ": 1675,
      "Ġë¶ĦìĦĿ": 1676,
      "ĠíĻį": 1677,
      "ĠJ": 1678,
      "Ġìŀł": 1679,
      "Ġëĵ±ìĿ´": 1680,
      "ìĦ¼": 1681,
      "ĠìĿĺíķ´": 1682,
      "Ġíģ´": 1683,
      "Ġíİĺ": 1684,
      "ì·¨": 1685,
      "íĺ¼": 1686,
      "ĠíĤ¤": 1687,
      "Ġì¤ĳìĭ¬": 1688,
      "ì¼ľ": 1689,
      "Ġ198": 1690,
      "ay": 1691,
      "íģ¼": 1692,
      "Ġ##ï": 1693,
      "ch": 1694,
      "ĠìĿ´ë²Ī": 1695,
      "Ġë°Ķë¡ľ": 1696,
      "ad": 1697,
      "Ġì¡°ìĤ¬": 1698,
      "Ġê³Ħíļį": 1699,
      "Ġìħ": 1700,
      "ĠìĹ¬ìĦ±": 1701,
      "ĠëŁ¬": 1702,
      "ì¸¡": 1703,
      "ĠíŀĪ": 1704,
      "Ġì¢Ģ": 1705,
      "íĮ¨": 1706,
      "ìķĻ": 1707,
      "Ġê¸°ì¤Ģ": 1708,
      "ëĳ": 1709,
      "ĠíĪ¬ìŀĲ": 1710,
      "ëıĮ": 1711,
      "Ġì°¸ìĹ¬": 1712,
      "Ġìłľê³µ": 1713,
      "Ġì§ģìłĳ": 1714,
      "Ġìłķì¹ĺ": 1715,
      "ĠìĿĺìĤ¬": 1716,
      "ĠìĥĪë¡ľìļ´": 1717,
      "ĠìĪĺëıĦ": 1718,
      "¶ģ": 1719,
      "Ġíķ´ëĭ¹": 1720,
      "íĥĪ": 1721,
      "Ġìķ½ë¬¼": 1722,
      "Ġê²°ìłķ": 1723,
      "ê´Ģê³Ħ": 1724,
      "Ġê·Ģ": 1725,
      "ĠìĿ¼ë¶Ģ": 1726,
      "ìĸ´ëĤĺ": 1727,
      "ig": 1728,
      "Ġìĸ´ëĸ»": 1729,
      "ë¦¬ìķĦ": 1730,
      "Ġ25": 1731,
      "ĠëĮĢë¶Ģë¶Ħ": 1732,
      "ĠìķĶ": 1733,
      "Ġë§¤ìļ°": 1734,
      "Ġå": 1735,
      "ìĭľìķĦ": 1736,
      "ë¦´": 1737,
      "Ġê³łëł¤": 1738,
      "Ġëĸł": 1739,
      "Ġê³ĦìĨį": 1740,
      "ê³³": 1741,
      "ĠíĦ°": 1742,
      "Ġr": 1743,
      "ĠíķĻìĥĿ": 1744,
      "íį¼": 1745,
      "ĠìĹ¬ê¸°": 1746,
      "Ġë°ĿíĺĶ": 1747,
      "Ġê³¨": 1748,
      "Ġê·¹": 1749,
      "ìļ±": 1750,
      "Ġëª¸": 1751,
      "Ġê·¸ê²ĥ": 1752,
      "Ġê´Ģë¦¬": 1753,
      "ur": 1754,
      "iv": 1755,
      "Ġê°ĲìĨĮ": 1756,
      "ìĤ¬íļĮ": 1757,
      "ëŀµ": 1758,
      "ëĩ": 1759,
      "íħľ": 1760,
      "ation": 1761,
      "ìĹĩ": 1762,
      "ĠìĿ¸ê°Ħ": 1763,
      "ë¯¼êµŃ": 1764,
      "íĤ¬": 1765,
      "ë°ĺìĿĳ": 1766,
      "Ġë¿Ĳ": 1767,
      "ĠìĻľ": 1768,
      "ĠêµŃëĤ´": 1769,
      "ìĿ¸ì§Ģ": 1770,
      "Ġë³´ìĹ¬": 1771,
      "Ġ##;": 1772,
      "Ġì¹¨": 1773,
      "ĠìĿ´ëłĩ": 1774,
      "ĠìĿ´íķ´": 1775,
      "âĢľ": 1776,
      "¨ìĸ´": 1777,
      "ë§ģ": 1778,
      "ĠëĤ®": 1779,
      "Ġê½": 1780,
      "ìĤ¬ìĹħ": 1781,
      "Ġ=": 1782,
      "Ġìĸ»": 1783,
      "ĠìĶ": 1784,
      "un": 1785,
      "Ġìĭľìŀ¥": 1786,
      "ìķĦê°Ģ": 1787,
      "Ġê±´ê°ķ": 1788,
      "Ġì£¼ìŀ¥": 1789,
      "ì¶©": 1790,
      "ìĹ°êµ¬": 1791,
      "Ġëĳĺ": 1792,
      "Ġì¼": 1793,
      "Ġìĸ´ëł¤": 1794,
      "ĠìĹŃíķł": 1795,
      "ĠìĤ¶": 1796,
      "ì±Ħ": 1797,
      "ul": 1798,
      "ĠìļĶêµ¬": 1799,
      "ì£ł": 1800,
      "ĠëıĪ": 1801,
      "ĠìŀĲê¸°": 1802,
      "200": 1803,
      "ìĿ´íĬ¸": 1804,
      "ìĨĲ": 1805,
      "ì¿ł": 1806,
      "ìĪĻ": 1807,
      "ëģ¼": 1808,
      "Ġê²½íĹĺ": 1809,
      "ĠìŀĳíĴĪ": 1810,
      "Ġg": 1811,
      "ì´Ŀ": 1812,
      "ìĭŃ": 1813,
      "Ġë¨¼": 1814,
      "ĠìĤ¬ê±´": 1815,
      "ĠìľĦì¹ĺ": 1816,
      "Ġìľ¡": 1817,
      "ĠíķĻêµĲ": 1818,
      "Ġìĸ´ëĬĲ": 1819,
      "ĠìĤ¬ëŀĳ": 1820,
      "ìĿ¸ëį°": 1821,
      "Ġ##â": 1822,
      "ĠëĮĢíķ´ìĦľ": 1823,
      "íĨ": 1824,
      "Ġê¹Į": 1825,
      "Ġìļ¸": 1826,
      "´´": 1827,
      "im": 1828,
      "ĠìľĦíķ´ìĦľ": 1829,
      "ìĬ¨": 1830,
      "ĠìĥģëĮĢ": 1831,
      "íĺĢ": 1832,
      "ĠëĤĺìĺ¤": 1833,
      "Ġì¦Ŀìĥģ": 1834,
      "ë§¥": 1835,
      "ì¹Ļ": 1836,
      "ë¦Ń": 1837,
      "Ġìłģìļ©": 1838,
      "ì§Ħëĭ¤": 1839,
      "ĠëĶ°ëĿ¼ìĦľ": 1840,
      "Ġë°Ģ": 1841,
      "ĠìĹĨìĿ´": 1842,
      "Ġ##[": 1843,
      "Ġìĭ¤ìĭľ": 1844,
      "ĠìĹŃìĭľ": 1845,
      "ê³¨": 1846,
      "us": 1847,
      "íĤ¨": 1848,
      "Ġê´Ģíķľ": 1849,
      "Ġë¬´ìĹĩ": 1850,
      "ìŀ¥ìķł": 1851,
      "ëĪĦ": 1852,
      "ĠìĿ´ê²ĥ": 1853,
      "ìĿ´ëĵľ": 1854,
      "íģ´": 1855,
      "ĠëĨĵ": 1856,
      "ĠU": 1857,
      "ĠìĹŃìĤ¬": 1858,
      "ĠìŀĲë¦¬": 1859,
      "em": 1860,
      "êµ´": 1861,
      "ct": 1862,
      "ĠíĻľìļ©": 1863,
      "ĠëĮĢíķĻ": 1864,
      "ê¸°ìĹĲ": 1865,
      "th": 1866,
      "íĭ´": 1867,
      "ä¸": 1868,
      "Ġíĺ¹": 1869,
      "ë¬¸íĻĶ": 1870,
      "Ġì£¼ìĿĺ": 1871,
      "Ġê¸°ëĮĢ": 1872,
      "ir": 1873,
      "Ġì§Ģë°©": 1874,
      "Ġë£¨": 1875,
      "Ġëī´": 1876,
      "ĠìłĦì²´": 1877,
      "íľ": 1878,
      "ëįķ": 1879,
      "Ġëª°": 1880,
      "Ġìľłì§Ģ": 1881,
      "Ġì§ĢìĨį": 1882,
      "ëĦĲ": 1883,
      "Ġì¤Ģë¹Ħ": 1884,
      "ĠìºĲ": 1885,
      "ĠëıĦìĭľ": 1886,
      "12": 1887,
      "ê³łìŀĲ": 1888,
      "ëŀľëĵľ": 1889,
      "Ġ100": 1890,
      "Ġíķ©ëĭĪëĭ¤": 1891,
      "ë¸Ķ": 1892,
      "Ġ24": 1893,
      "ĠíĴĪ": 1894,
      "Ġì¡°ìĦł": 1895,
      "ìĥģìĿĺ": 1896,
      "ĠëĮĢíķľë¯¼êµŃ": 1897,
      "Ġìĭ¤ìłľ": 1898,
      "ìĿĺë£Į": 1899,
      "ĠìĿĳ": 1900,
      "Ġë¸Ķ": 1901,
      "ĠìĦľë¹ĦìĬ¤": 1902,
      "Ġë¹Ī": 1903,
      "ê°Ļ": 1904,
      "ĠìĥĿíĻľ": 1905,
      "ĠíĻĺê²½": 1906,
      "íĮħ": 1907,
      "íĺģ": 1908,
      "ĠìķĦë¬´": 1909,
      "Ġ##âĢ¦": 1910,
      "ìļ´ëį°": 1911,
      "ëĵ¯": 1912,
      "ìĬ¤íĥĢ": 1913,
      "Ġìĥ": 1914,
      "ìľĦìĽĲíļĮ": 1915,
      "Ġë¬¼ë¡ł": 1916,
      "ĠíĶ¼íķ´": 1917,
      "Ġëľ»": 1918,
      "ëªħìĿĺ": 1919,
      "ter": 1920,
      "ĠíĴį": 1921,
      "ëĮĢìĿĺ": 1922,
      "ìĹĨìĿ´": 1923,
      "Ġì¶Ķê°Ģ": 1924,
      "ĠëĤĺíĥĢëĤĺ": 1925,
      "Ġâĳ": 1926,
      "----": 1927,
      "ĠíĿ¬": 1928,
      "ìĿ¸ëĭ¤": 1929,
      "ĠìĪĺì¤Ģ": 1930,
      "ag": 1931,
      "30": 1932,
      "ĠìĦłìĪĺ": 1933,
      "Ġì°¨ìĿ´": 1934,
      "ìĦľìĿĺ": 1935,
      "os": 1936,
      "Ġìī½": 1937,
      "Ġëħ¸ëł¥": 1938,
      "..": 1939,
      "ì£Ħ": 1940,
      "ê´Ģë¦¬": 1941,
      "ìĿĺìĤ¬": 1942,
      "Ġê¸°ëĬ¥": 1943,
      "Ġë°ľíĳľ": 1944,
      "ìķĦìĦľ": 1945,
      "Ġ##=": 1946,
      "Ġëĭµ": 1947,
      "ĠìĿ½": 1948,
      "êµŃìĿĺ": 1949,
      "ìĭľíĹĺ": 1950,
      "ĠêµŃìłľ": 1951,
      "ì¹Ń": 1952,
      "Ġê·¸ëŀĺìĦľ": 1953,
      "Ġìµľê·¼": 1954,
      "ĠìĻĶ": 1955,
      "Ġfor": 1956,
      "íĽ": 1957,
      "ĠëĤĺëĿ¼": 1958,
      "ĠìĦłíĥĿ": 1959,
      "íĮĢ": 1960,
      "íĥģ": 1961,
      "ìĬ¤íħľ": 1962,
      "Ġëª©ìłģ": 1963,
      "ĠëĶ°ë¥´": 1964,
      "ì»¤": 1965,
      "ìĩ": 1966,
      "Ġìķ½ìĿĺ": 1967,
      "ĠìĿ¸ìłķ": 1968,
      "50": 1969,
      "Ġê²°êµŃ": 1970,
      "Ġëĵ¯": 1971,
      "íĪ¬ìĹ¬": 1972,
      "ìĿ´ì§Ģ": 1973,
      "Ġ21": 1974,
      "ĠìĥĿìĤ°": 1975,
      "Ġì£¼ìļĶ": 1976,
      "Ġëĵ±ìŀ¥": 1977,
      "ĠíĮĢ": 1978,
      "ê±°ë¦¬": 1979,
      "Ġ197": 1980,
      "ĠìĿ¸íķ´": 1981,
      "ìĥĪ": 1982,
      "ìĿ´ìĬ¤": 1983,
      "ĠëĤĺíĥĢëĤ¬": 1984,
      "ĠêµĲìĪĺ": 1985,
      "ê¸°ìĹħ": 1986,
      "ĠìĦĿ": 1987,
      "ĠìŀĲë£Į": 1988,
      "Ġë°ľìłĦ": 1989,
      "Ġë³µìļ©": 1990,
      "ë¡¯": 1991,
      "Ġì¶Ķì§Ħ": 1992,
      "ìŀ¡": 1993,
      "ĠìĦ±ê³µ": 1994,
      "ĠíĳľíĺĦ": 1995,
      "Ġth": 1996,
      "ĠìĿĺìĽĲ": 1997,
      "ìĶ©": 1998,
      "ĳ¸": 1999,
      "Ġ##ã": 2000,
      "ìĬ¬": 2001,
      "ìľµ": 2002,
      "ëĥ¥": 2003,
      "ĠíĥĪ": 2004,
      "ëĩ¨": 2005,
      "Ġ22": 2006,
      "Ġê´Ģìĭ¬": 2007,
      "Ġìĺ¤ëĬĺ": 2008,
      "Ġê°Ģìļ´ëį°": 2009,
      "11": 2010,
      "ê³¼ìŀ¥": 2011,
      "Ġë¹ĦêµĲ": 2012,
      "Ġ?": 2013,
      "íĭĢ": 2014,
      "ĠìŀĲìĹ°": 2015,
      "ĠëħĦ": 2016,
      "Ġ50": 2017,
      "Ġæ": 2018,
      "ìĵ": 2019,
      "ĠìŀĲìľł": 2020,
      "ow": 2021,
      "ì§ľ": 2022,
      "Ġíķµ": 2023,
      "Ġ##âĢĵ": 2024,
      "Ġê¸°ë³¸": 2025,
      "ĠíĥĦ": 2026,
      "Ġì¡°ê¸Ī": 2027,
      "Ġê°Ģì¡±": 2028,
      "Ġê³µê²©": 2029,
      "ĠëĨĢ": 2030,
      "Ġë¶ģíķľ": 2031,
      "ers": 2032,
      "Ġê°ķíĻĶ": 2033,
      "ĠíĶĦë¡ľê·¸ëŀ¨": 2034,
      "íĥķ": 2035,
      "ĠV": 2036,
      "Ġâĸ³": 2037,
      "Ġì¡°ì§ģ": 2038,
      "ìĸ´ì§Ģ": 2039,
      "ìłķë³´": 2040,
      "ĠìķĪìłĦ": 2041,
      "ëĨĵ": 2042,
      "ĠíļĮìĤ¬": 2043,
      "18": 2044,
      "íĹĮ": 2045,
      "ĠìĹħë¬´": 2046,
      "ĠìĨ¡": 2047,
      "ë§Īëĭ¤": 2048,
      "ìĭľìŀ¥": 2049,
      "Ġíĸīìłķ": 2050,
      "ĠíĮĲëĭ¨": 2051,
      "Ġìĭľíĸī": 2052,
      "ëĤ¸": 2053,
      "íĦ´": 2054,
      "Ġê°ľìĦł": 2055,
      "ĠëįĶìļ±": 2056,
      "ĠìłľíĴĪ": 2057,
      "ĠëĦ£": 2058,
      "ë¡ľë¶ĢíĦ°": 2059,
      "Ġë¶ĢìĤ°": 2060,
      "ëı¼": 2061,
      "ut": 2062,
      "Ġë´ī": 2063,
      "ë¦¬ìĬ¤": 2064,
      "Ġëĵ±ë¡Ŀ": 2065,
      "Ġë§¡": 2066,
      "ê±¸": 2067,
      "ĠìĦ¤ì¹ĺ": 2068,
      "Ġìĸµ": 2069,
      "Ġìłķìĭł": 2070,
      "Ġì§ĢëĤĺ": 2071,
      "Ġê·ľìłķ": 2072,
      "ìłĦíŀĪ": 2073,
      "Ġëĸ¨ìĸ´": 2074,
      "Ġë§Īëł¨": 2075,
      "um": 2076,
      "ĠìĹĪ": 2077,
      "ĠíĺĦìĭ¤": 2078,
      "íķľëĭ¤ëĬĶ": 2079,
      "Ġê´Ģì°°": 2080,
      "Ġìĸ´ë¦°": 2081,
      "Ġê±°ìĿĺ": 2082,
      "ëł¤ê³ł": 2083,
      "ĠìŀĲì²´": 2084,
      "ê·Ģ": 2085,
      "Ġì¹ľêµ¬": 2086,
      "Ġìłķë§Ĳ": 2087,
      "mg": 2088,
      "ĠìĦľë¡ľ": 2089,
      "ĠìĦ¤ë¦½": 2090,
      "Ġ##%)": 2091,
      "ĠìĿ´ìłľ": 2092,
      "ìĦ±ìĿĺ": 2093,
      "ì¦Į": 2094,
      "Ġì¹¼": 2095,
      "ì¤Ħ": 2096,
      "Ġë°©ìĭĿ": 2097,
      "ìľ¼ë¡ľìĦľ": 2098,
      "ĠëĤĺíĥĢëĤł": 2099,
      "ë³¼": 2100,
      "Ġìļ©ëŁī": 2101,
      "Ġìłľìĭľ": 2102,
      "Ġëª¨ë¥´": 2103,
      "ìľ¼ë¡ľìį¨": 2104,
      "ë³ĳìĽĲ": 2105,
      "ìĿ´íĦ°": 2106,
      "ëĨį": 2107,
      "Ġ*": 2108,
      "ìŀĳìļ©": 2109,
      "Ġì¹ĺê³¼": 2110,
      "ĠìĤ°ìĹħ": 2111,
      "ìĤ¼": 2112,
      "Ġìļ´ëıĻ": 2113,
      "ce": 2114,
      "ë²Ħì§Ģ": 2115,
      "ĠìĺĪìłķ": 2116,
      "Ġë¶Ħìķ¼": 2117,
      "íıĲ": 2118,
      "Ġê²©": 2119,
      "Ġìľ¤": 2120,
      "Ġì¶©ë¶Ħ": 2121,
      "Ġíķ´ê²°": 2122,
      "ëľ": 2123,
      "íĽĪ": 2124,
      "Ġ23": 2125,
      "ì§ĢìĹŃ": 2126,
      "ëıĻìķĪ": 2127,
      "ĠìĿ´ìłĦ": 2128,
      "ê³¤": 2129,
      "íıŃ": 2130,
      "ĠëĬĲëĤ": 2131,
      "ëłµ": 2132,
      "Ġìĥī": 2133,
      "Ġë¨¼ìłĢ": 2134,
      "Ġ28": 2135,
      "Ġíľ´": 2136,
      "Ġê¿": 2137,
      "ìģ": 2138,
      "Ġìĸ¼ë§Ī": 2139,
      "ê°Ķ": 2140,
      "Ġìĥģëĭ¹": 2141,
      "Ġë¶Ļ": 2142,
      "Ġíķ´ìķ¼": 2143,
      "ĠíĿĶ": 2144,
      "ĠíĹ¤": 2145,
      "15": 2146,
      "Ġì¦Ĳ": 2147,
      "ĠíĭĢ": 2148,
      "Ġêµ¬ì¡°": 2149,
      "Ġê¸´": 2150,
      "ìļķ": 2151,
      "ĠìķĦì§ģ": 2152,
      "Ġë¹Ħë¡¯": 2153,
      "Ġì°©": 2154,
      "ĠíĬ¹ë³Ħ": 2155,
      "Ġë°ľê²¬": 2156,
      "íİ´": 2157,
      "ìħ¨": 2158,
      "ë¡Ń": 2159,
      "ĠìĦ±ìŀ¥": 2160,
      "Ġ26": 2161,
      "ëłĪìĬ¤": 2162,
      "Ġìĩ": 2163,
      "ĠëĬ¥ëł¥": 2164,
      "ê°ľìĽĶ": 2165,
      "ĠíĮĶ": 2166,
      "ĠëıĮìķĦ": 2167,
      "ĠëŃĲ": 2168,
      "Ġ##&": 2169,
      "ìŀĲë¦¬": 2170,
      "ëį¸": 2171,
      "Ġì£¼ë¯¼": 2172,
      "Ġre": 2173,
      "ì°¸": 2174,
      "ëıĦìĿĺ": 2175,
      "ì§Ģë§ī": 2176,
      "Ġìŀħìŀ¥": 2177,
      "ê¸°ëĬ¥": 2178,
      "íĺĳíļĮ": 2179,
      "Ġ40": 2180,
      "ãĤ": 2181,
      "ĠíĴĢ": 2182,
      "ĠëĶ°ë¥¸": 2183,
      "©ëĭĪëĭ¤": 2184,
      "ĠìłģìłĪ": 2185,
      "ë¨¼": 2186,
      "Ġê¹¨": 2187,
      "Ġë°©ìĨ¡": 2188,
      "Ġìłľìŀĳ": 2189,
      "ĠìµľëĮĢ": 2190,
      "ìĿ¸ìĿĺ": 2191,
      "od": 2192,
      "Ġì±ħìŀĦ": 2193,
      "ĠìĽĮ": 2194,
      "14": 2195,
      "íĺľ": 2196,
      "ë³µì§Ģ": 2197,
      "Ġëķ": 2198,
      "ĠìĿ¸ìĭĿ": 2199,
      "Ġê·¸ëŁ°ëį°": 2200,
      "Ġê²ĮìŀĦ": 2201,
      "ìĹ¬ìķ¼": 2202,
      "ëĺĲ": 2203,
      "íŀ": 2204,
      "ĠìĤ´íİ´": 2205,
      "ë¹Ī": 2206,
      "ĠìĿ¸íĦ°": 2207,
      "íĴį": 2208,
      "Ġê¸°ê°Ħ": 2209,
      "ìķĦìķ¼": 2210,
      "ĠìĺĪìĤ°": 2211,
      "ë²½": 2212,
      "ë·": 2213,
      "ëĿ¼ìĿ´": 2214,
      "ĠìĭľíĹĺ": 2215,
      "Ġê°ĳ": 2216,
      "ìĿ¸ê°Ģ": 2217,
      "ê¸°ê°Ħ": 2218,
      "ì¦ĺ": 2219,
      "Ġê³µëıĻ": 2220,
      "íħĲ": 2221,
      "Ġ196": 2222,
      "Ġíĺ¹ìĿĢ": 2223,
      "ê¾¸": 2224,
      "Ġì¼Ģ": 2225,
      "Ġìķ½ìĤ¬": 2226,
      "ĠâĢĶ": 2227,
      "íħĶ": 2228,
      "ìĻĢìĿĺ": 2229,
      "Ġv": 2230,
      "ĠëıĻìĭľ": 2231,
      "ĠìĭľëĮĢ": 2232,
      "Ġê°Ģì¹ĺ": 2233,
      "ìłľìĿĺ": 2234,
      "ë³´ê±´": 2235,
      "16": 2236,
      "ĠíĶĦëŀĳ": 2237,
      "ìĽł": 2238,
      "Ľ°": 2239,
      "Ġë³´íĺ¸": 2240,
      "Ġìłķìĥģ": 2241,
      "Ġê³µê°Ħ": 2242,
      "ĠíĸīëıĻ": 2243,
      "ĠíĻķëĮĢ": 2244,
      "ĠìĨĮë¹Ħ": 2245,
      "oc": 2246,
      "ĠìĮ": 2247,
      "ĠìĤ¬ì§Ħ": 2248,
      "BS": 2249,
      "ĠëĲĲ": 2250,
      "ĠëıĦìĽĢ": 2251,
      "ëĥĪ": 2252,
      "Ġ&": 2253,
      "Ġê¹Ĭ": 2254,
      "ĠìĺģêµŃ": 2255,
      "ĠìĹ¼": 2256,
      "Ġ##ãİ": 2257,
      "Ġ##_": 2258,
      "ĠíļĮìŀ¥": 2259,
      "ë¨¹": 2260,
      "ìĿĦê¹Į": 2261,
      "Ġ27": 2262,
      "ìļĶìķ½": 2263,
      "Ġë§ĮëĤĺ": 2264,
      "Ġê°ķì¡°": 2265,
      "ìĤ¬ìĿĺ": 2266,
      "Ġê°Ĳëıħ": 2267,
      "ĠìłľëıĦ": 2268,
      "Ġ##ãĢį": 2269,
      "ìĻĦ": 2270,
      "ìľ¼ëĭĪ": 2271,
      "ëĿ¼ë©´": 2272,
      "ìĬ¤íĦ°": 2273,
      "Ġ##ï¼": 2274,
      "Ġì§Ģìłģ": 2275,
      "all": 2276,
      "Ġëħ¸ëıĻ": 2277,
      "Ġë°ĺìĿĳ": 2278,
      "ë°ĸ": 2279,
      "Ġ+": 2280,
      "ìĦ¼íĦ°": 2281,
      "ĠìĪĺíĸī": 2282,
      "Ġíĺķíĥľ": 2283,
      "Ġìŀ¥ìķł": 2284,
      "Ġon": 2285,
      "Ġmg": 2286,
      "ĠìľĦíķĺ": 2287,
      "¢°": 2288,
      "Ġëĭ¬ë¦¬": 2289,
      "Ġìĭ¸": 2290,
      "Ġ>": 2291,
      "ãĥ": 2292,
      "ĠìĹ¬ìŀĲ": 2293,
      "ìķ½íĴĪ": 2294,
      "ëłĮ": 2295,
      "ĠìķĦëŀĺ": 2296,
      "Ġì£¼ë¡ľ": 2297,
      "ĠíĶ¼ë¶Ģ": 2298,
      "íĿ¥": 2299,
      "Ġë§ĪìĿĦ": 2300,
      "Ġì¡¸": 2301,
      "Ġíķ´ìĦľ": 2302,
      "Ġíĭ°": 2303,
      "Ġê¸°ê´Ģ": 2304,
      "Ġy": 2305,
      "ìķĮ": 2306,
      "ì¹ł": 2307,
      "ĠìĿĺíķľ": 2308,
      "ĠíĬ¹ìĦ±": 2309,
      "Ġë°ĸ": 2310,
      "ap": 2311,
      "ìĵ°": 2312,
      "Ġëįĺ": 2313,
      "Ġìĭľê¸°": 2314,
      "ë³´íĹĺ": 2315,
      "Ġë³´ìĿ¸ëĭ¤": 2316,
      "ìľ¤": 2317,
      "ìº": 2318,
      "ìī": 2319,
      "ĠëĮĢíķĺ": 2320,
      "op": 2321,
      "ìłķë¶Ģ": 2322,
      "ĠíĮĲë§¤": 2323,
      "Ġë§Īì§Ģë§ī": 2324,
      "Ġê°Ģì§Ħ": 2325,
      "Ġê²ĢìĤ¬": 2326,
      "ìĨĮëħĦ": 2327,
      "ĠìĽĢ": 2328,
      "Ġis": 2329,
      "Ġ##ãĢı": 2330,
      "ĠìĤ¬ê³ł": 2331,
      "21": 2332,
      "ìĺ¥": 2333,
      "Ġë¯¸ì¹ĺ": 2334,
      "Ġìĸ´ëĶĶ": 2335,
      "ec": 2336,
      "íĻį": 2337,
      "ìĦ¸ê¸°": 2338,
      "Ġë°°ìļ°": 2339,
      "Ġë¶Ģì¡±": 2340,
      "ë¿Ĳ": 2341,
      "Ġìĺ¬ëĿ¼": 2342,
      "Ġíķĺë£¨": 2343,
      "ĠìĬ¤íĥĢ": 2344,
      "ìĨĮë¦¬": 2345,
      "Ġíĩ´": 2346,
      "Ġì¤ĳëĭ¨": 2347,
      "ĠìĤ¬ë§Ŀ": 2348,
      "Ġê²¬": 2349,
      "ĠìĦłê±°": 2350,
      "ĠíĽĦë³´": 2351,
      "ë¢°": 2352,
      "¨ë¦¬": 2353,
      "íıīê°Ģ": 2354,
      "25": 2355,
      "Ġìłģê·¹": 2356,
      "Ġíķľíİ¸": 2357,
      "ê¸°ìĿĺ": 2358,
      "ĩĮ": 2359,
      "ëª»": 2360,
      "ìĸ´ì§Ħ": 2361,
      "Ġê²¨": 2362,
      "íĩ´": 2363,
      "íĶ½": 2364,
      "Ġë¹Ħíķ´": 2365,
      "ì¡°ìĤ¬": 2366,
      "ëĬĶê°Ģ": 2367,
      "Ġê¶ģ": 2368,
      "ì²Ļ": 2369,
      "ëĦ·": 2370,
      "17": 2371,
      "ì´Į": 2372,
      "Ġë§Ŀ": 2373,
      "Ġwas": 2374,
      "ĠëĽ°": 2375,
      "ì¤": 2376,
      "ĠìĿĮìķħ": 2377,
      "13": 2378,
      "av": 2379,
      "ĠìĹ°ê²°": 2380,
      "Ġë¯¿": 2381,
      "Ġìķķ": 2382,
      "Ġë°ĶëŀĮ": 2383,
      "ìĬ¤ë¡ľ": 2384,
      "Ġìĥģíĺ¸": 2385,
      "Ġ##ãĢī": 2386,
      "ìħĶ": 2387,
      "ë£¹": 2388,
      "ĠëĤ¨ìŀĲ": 2389,
      "Ġê½ĥ": 2390,
      "Ġëħ¹": 2391,
      "ãĨį": 2392,
      "Ġê°ģê°ģ": 2393,
      "Ġë³´íĹĺ": 2394,
      "ìĬĪ": 2395,
      "ìĺĢìľ¼ë©°": 2396,
      "íĿ¡": 2397,
      "ĠëıĦìŀħ": 2398,
      "Ġãħİ": 2399,
      "ĠíĶĦëŀĳìĬ¤": 2400,
      "ìĤ°ìĹħ": 2401,
      "ist": 2402,
      "ov": 2403,
      "Ġê°Ģê²©": 2404,
      "ĠìĥģìĬ¹": 2405,
      "åħ": 2406,
      "ĠëıħìĿ¼": 2407,
      "ëįĶëĿ¼ëıĦ": 2408,
      "ĠìĪł": 2409,
      "Ġê²½ì°°": 2410,
      "ĠëĪĦêµ¬": 2411,
      "ĠìĹ¬íĸī": 2412,
      "ab": 2413,
      "Ġë°©ë¬¸": 2414,
      "ê´´": 2415,
      "Ġëª©íĳľ": 2416,
      "äº": 2417,
      "ĠìĿ´ìĥģìĿĺ": 2418,
      "Ġ29": 2419,
      "Ġê³µê°ľ": 2420,
      "ëĿ¼ë©°": 2421,
      "ĠìĭľìĬ¤íħľ": 2422,
      "Ġì¢Į": 2423,
      "ĠìŀĶ": 2424,
      "ëŀĲ": 2425,
      "ëĿ¼ìĿ¸": 2426,
      "ìĸ´ëĤľ": 2427,
      "Ġíıīê·ł": 2428,
      "ith": 2429,
      "Ġì§ķ": 2430,
      "ëĦĪì§Ģ": 2431,
      "ë¦°ëĭ¤": 2432,
      "ìĿ´ìĥģ": 2433,
      "Ġ2015": 2434,
      "Ġk": 2435,
      "ĠìĿĺê²¬": 2436,
      "íĹĪì¦Ŀ": 2437,
      "ĠìĹĶ": 2438,
      "Ġìĭľë¯¼": 2439,
      "ĠìĤ¬ë¡Ģ": 2440,
      "Ġ2010": 2441,
      "ĠìĨĮë¦¬": 2442,
      "ĠìĦ¸ìĥģ": 2443,
      "ĠëĤ´ëł¤": 2444,
      "ìĸ´ëıĦ": 2445,
      "Ġ2014": 2446,
      "ĠìłľìĻ¸": 2447,
      "Ġë³ĳìĽĲ": 2448,
      "Ġì¤ĳìķĻ": 2449,
      "ìĭľì¼ľ": 2450,
      "ber": 2451,
      "ëŀį": 2452,
      "Ġï": 2453,
      "ĠíĺķìĦ±": 2454,
      "ìļ°ìĬ¤": 2455,
      "Ġë§Įëĵł": 2456,
      "Ġê°ľìµľ": 2457,
      "ëĮĢíķĻ": 2458,
      "ĠThe": 2459,
      "íķľêµŃ": 2460,
      "ìĤ¬íķŃ": 2461,
      "ĠíĸīìĤ¬": 2462,
      "ëī´": 2463,
      "ĠëĤĺìĺ¨": 2464,
      "ĠìĶ¨": 2465,
      "ĠëĵľëŁ¬": 2466,
      "Ġëĭ¤ë¥´": 2467,
      "Ġëĵ¤ìĸ´ê°Ģ": 2468,
      "ĠìĪĻ": 2469,
      "est": 2470,
      "Ġç": 2471,
      "Ġê¸°ìĸµ": 2472,
      "ĠìłĦë¬¸ê°Ģ": 2473,
      "ìĹĦ": 2474,
      "Ġi": 2475,
      "Ġì½ĺ": 2476,
      "ĠìłĦêµŃ": 2477,
      "ĠìĨĮê°ľ": 2478,
      "Ġê¸°ìŀĲ": 2479,
      "ĠìĦ¬": 2480,
      "íı°": 2481,
      "ì§ĪíĻĺ": 2482,
      "ëł¤ëĬĶ": 2483,
      "ãħĭãħĭãħĭ": 2484,
      "ĠìĿ´ë¥´": 2485,
      "ĠíļĮìĽĲ": 2486,
      "ĠíĸīìľĦ": 2487,
      "ate": 2488,
      "ìłķì±ħ": 2489,
      "Ġê°ľëħĲ": 2490,
      "ĠìĬ¬": 2491,
      "ĠìłĦìŁģ": 2492,
      "ê²¼": 2493,
      "ìļ´ëıĻ": 2494,
      "ĠìķĦë²Ħì§Ģ": 2495,
      "ĠìķĦëĵ¤": 2496,
      "å¤": 2497,
      "Ġ2012": 2498,
      "ìĥ": 2499,
      "ĠíĿĲ": 2500,
      "ëĭ¨ì²´": 2501,
      "ê³¼ìłķ": 2502,
      "íķľëĭ¤ê³ł": 2503,
      "Ġë§¥": 2504,
      "Ġê¼Ń": 2505,
      "Ġë¯¸ëŀĺ": 2506,
      "Ġìĸ¸ìłľ": 2507,
      "Ġê²½ìŁģ": 2508,
      "Ġë§Įíģ¼": 2509,
      "Ġë¯¼ì£¼": 2510,
      "ê²½ìłľ": 2511,
      "ĠìĦłìłķ": 2512,
      "íĻľëıĻ": 2513,
      "Ġ2013": 2514,
      "ĠíĹĮ": 2515,
      "Ġê·ľëª¨": 2516,
      "ë§Įíģ¼": 2517,
      "ìķĦìļĶ": 2518,
      "nd": 2519,
      "º¼": 2520,
      "ì¹ĺê³¼": 2521,
      "Ġë¹Į": 2522,
      "Ġëĵ£": 2523,
      "ì¶ĺ": 2524,
      "ĠìĺĪìĥģ": 2525,
      "ĠìŀĲëıĻ": 2526,
      "ĠãĢİ": 2527,
      "Ġìª½": 2528,
      "ĠãĢĪ": 2529,
      "Ġ2016": 2530,
      "ĠìĿ¼ìľ¼": 2531,
      "Ġê°ĲìĤ¬": 2532,
      "Ġëĵľë¬¼": 2533,
      "ri": 2534,
      "ìļ°ë¦¬": 2535,
      "ĠëĮĢìĭł": 2536,
      "Ġst": 2537,
      "ëĦ¤ìļĶ": 2538,
      "ì¼°": 2539,
      "ìŀ¥ìĿĺ": 2540,
      "ĠìľłëŁ½": 2541,
      "ĠíķĻìĬµ": 2542,
      "ĠëĩĮ": 2543,
      "Ġê³¡": 2544,
      "Ġë°©íĸ¥": 2545,
      "ì§ĢìĽĲ": 2546,
      "Ġê·¸ë¦¼": 2547,
      "ìĬ·": 2548,
      "Ġê¸°íĥĢ": 2549,
      "Ġ194": 2550,
      "ê¸°ìĪł": 2551,
      "ĠìĬ¤ìĬ¤ë¡ľ": 2552,
      "ë¶ĢìĿĺ": 2553,
      "Ġì°į": 2554,
      "Ġìĭľì¦Į": 2555,
      "íľĺ": 2556,
      "ê°ľë°ľ": 2557,
      "ĠìĽĲìĿ¸": 2558,
      "Ġë°¤": 2559,
      "Ġìĸ´ëłµ": 2560,
      "ĠìłķíĻķ": 2561,
      "Ġêµ¬ì²´": 2562,
      "ê°ĳ": 2563,
      "ãħİ": 2564,
      "ë²¤": 2565,
      "ë¬´ìĽĲ": 2566,
      "Ġì°¨ì§Ģ": 2567,
      "ĠíĬ¹ì§ķ": 2568,
      "Ġê¾¸": 2569,
      "ĠìŀĲì£¼": 2570,
      "ĠìĻ¸êµŃ": 2571,
      "ì³¤": 2572,
      "®¤": 2573,
      "ĠíĺĦëĮĢ": 2574,
      "Ġãħĭ": 2575,
      "Ġê¿Ī": 2576,
      "Ġê²°íĺ¼": 2577,
      "Ġê³¼íķĻ": 2578,
      "ìĪĺë¡Ŀ": 2579,
      "Ġë°ĶìĿ´": 2580,
      "Ġ2011": 2581,
      "ìĥĿíĻľ": 2582,
      "Ġë³´ê±´": 2583,
      "ĠÂ·": 2584,
      "Ġì°¸ê³ł": 2585,
      "íĸĪìľ¼ë©°": 2586,
      "Ġìī¬": 2587,
      "ĠëıĻìĿ¼": 2588,
      "art": 2589,
      "Ġê·¸ëĮĢë¡ľ": 2590,
      "ĠìĿ¸íķľ": 2591,
      "ìłķìĿĺ": 2592,
      "Ġ2017": 2593,
      "íĶĦë¡ľ": 2594,
      "Ġëįķ": 2595,
      "ĠìĿµ": 2596,
      "Ġì§ĢëıĦ": 2597,
      "Ġë¨¸ë¦¬": 2598,
      "ê°ĢëĬ¥": 2599,
      "Ġëıħë¦½": 2600,
      "Ġíį¼": 2601,
      "Ġë¹ĦìĬ·": 2602,
      "Ġë³´ëĤ´": 2603,
      "ĠìĤ´íİ´ë³´": 2604,
      "Ġê·¸ëĥ¥": 2605,
      "ĠëĤĺê°Ģ": 2606,
      "ê²°ê³¼": 2607,
      "Ġìµľê³ł": 2608,
      "ê°ĦìĿĺ": 2609,
      "Ġê·¸ëħĢ": 2610,
      "ì°¬ê°Ģì§Ģ": 2611,
      "ĠìĿĮìĭĿ": 2612,
      "ìĸ¼": 2613,
      "Ġëŀĺ": 2614,
      "ëıĪ": 2615,
      "ê·¸ëŁ¬": 2616,
      "ĠY": 2617,
      "íķĢ": 2618,
      "ê¶ģ": 2619,
      "Ġìĺ¬íķ´": 2620,
      "Ġëħ¼ìĿĺ": 2621,
      "ì©": 2622,
      "Ġì§ĳì¤ĳ": 2623,
      "Ġ2008": 2624,
      "Ġê·¼ê±°": 2625,
      "íĻĺê²½": 2626,
      "Ġë§Īì°¬ê°Ģì§Ģ": 2627,
      "íĺ¹": 2628,
      "å®": 2629,
      "Ġìłľíķľ": 2630,
      "ë²¨": 2631,
      "ĠíĻķë³´": 2632,
      "ĠíĿ¡": 2633,
      "ìĭľìĦ¤": 2634,
      "Ġë°ĶëĿ¼": 2635,
      "ìĿĺìĽĲ": 2636,
      "ĠãĢĮ": 2637,
      "ĠìłľëĮĢë¡ľ": 2638,
      "Ġíĺģ": 2639,
      "ëĿ¼ë§Ī": 2640,
      "ì²´ìĿĺ": 2641,
      "Ġì§Ģìłķ": 2642,
      "Ġê°ľìłķ": 2643,
      "ëĭĲ": 2644,
      "ĠíĻĪ": 2645,
      "ine": 2646,
      "ĠëĨĴìĿ´": 2647,
      "ë§¹": 2648,
      "ĠìŀĦìĭł": 2649,
      "Ġ2009": 2650,
      "Ġì£¼ìĿ¸": 2651,
      "ĠìĪ¨": 2652,
      "Ġì£¼ë³Ģ": 2653,
      "Ġëĭ´ëĭ¹": 2654,
      "Ġìľłëªħ": 2655,
      "ak": 2656,
      "Ġì¿ł": 2657,
      "ìĭľíĤ¬": 2658,
      "ìĶĢ": 2659,
      "ess": 2660,
      "Ġì§ĢëĤľíķ´": 2661,
      "ìľ¼ë¡ľë¶ĢíĦ°": 2662,
      "Ġìļķ": 2663,
      "Ġê³§": 2664,
      "ĠSt": 2665,
      "ë¹ł": 2666,
      "ĠìŀĳìĦ±": 2667,
      "ĠìľłìĤ¬": 2668,
      "Ġê°Ģê¹Į": 2669,
      "ĠëıĻë¬¼": 2670,
      "ëª¬": 2671,
      "ìĬ¤íħĮ": 2672,
      "Ġìĸ¼êµ´": 2673,
      "Ġ2018": 2674,
      "ë°ĸìĹĲ": 2675,
      "ity": 2676,
      "íŀĮ": 2677,
      "ĠìĤ¬ìłĦ": 2678,
      "Ġì´Īê¸°": 2679,
      "Ġê¸°íļĮ": 2680,
      "æľ": 2681,
      "ĠìŀĳìĹħ": 2682,
      "ê¼": 2683,
      "ĠâĢĵ": 2684,
      "Ġíĸ¥ìĥģ": 2685,
      "ĠìĿ¼ìłķ": 2686,
      "ly": 2687,
      "Ġ##ï½": 2688,
      "Ġê¸°ì¡´": 2689,
      "ĠìĬĪ": 2690,
      "Ġìĭłê²½": 2691,
      "ì¡¸": 2692,
      "Ġíķľëĭ¤ëĬĶ": 2693,
      "Ġê±´ë¬¼": 2694,
      "Ġì´ī": 2695,
      "Ġê±°ë¦¬": 2696,
      "if": 2697,
      "ì¢Į": 2698,
      "Ġëł¤": 2699,
      "Ġê³¼ê±°": 2700,
      "Ġê´Ģê³ĦìŀĲ": 2701,
      "Ġì°¾ìķĦ": 2702,
      "24": 2703,
      "Ġêµ¬ì¶ķ": 2704,
      "Ġë³Ģê²½": 2705,
      "ìľĦê¸°": 2706,
      "Ġì±": 2707,
      "Ġë°ĺëĮĢ": 2708,
      "Ġëĭ¤ë§Į": 2709,
      "ìĿ´ìħĺ": 2710,
      "Ġê³Ħìķ½": 2711,
      "Ġì²ĺë¦¬": 2712,
      "Ġì§ģìĽĲ": 2713,
      "Ġê¸Īìľµ": 2714,
      "ìĬ¤ëŁ¬": 2715,
      "ĠëģĮ": 2716,
      "Ġë©°": 2717,
      "Ġìŀ¥ê¸°": 2718,
      "ĠìłĦíĨµ": 2719,
      "Ġë§ĲìĶĢ": 2720,
      "ĠëĦĵ": 2721,
      "ĠìłĢíĿ¬": 2722,
      "Ġíİ¼": 2723,
      "Ġì§ĢìĭĿ": 2724,
      "Ġëħ¸ëŀĺ": 2725,
      "ìĪĺìĿĺ": 2726,
      "ĠìµľìĨĮ": 2727,
      "ĠìķĦì£¼": 2728,
      "ia": 2729,
      "ĠìĿ¸ë¬¼": 2730,
      "ĠìĭľìĦ¤": 2731,
      "ëĶĶìĸ´": 2732,
      "íĦ¸": 2733,
      "Ġìļ°ìĦł": 2734,
      "Ġ2000": 2735,
      "ĠëĶ¸": 2736,
      "ĠìĿ¸êµ¬": 2737,
      "Ġè": 2738,
      "ĠëĮĢì²´": 2739,
      "Ġë´Ĳ": 2740,
      "ì¹¼": 2741,
      "ĠìĿ´ëıĻ": 2742,
      "ë¥¸ëĭ¤": 2743,
      "ĠìĽĥ": 2744,
      "ill": 2745,
      "ì¿": 2746,
      "ĠíĨµíķ©": 2747,
      "ew": 2748,
      "ìĹĺ": 2749,
      "Ġì²Ńêµ¬": 2750,
      "ĠìĹ¬ë¶Ģ": 2751,
      "Ġë¶Ģëª¨": 2752,
      "ĠêµĲìĤ¬": 2753,
      "ìłľëıĦ": 2754,
      "ëĭ¥": 2755,
      "ĠìĿĺíķĺ": 2756,
      "ĠëĬĲëĤĮ": 2757,
      "ĠìłĦëŀµ": 2758,
      "ĠìĿ´ìĸ´": 2759,
      "ĠíĬ¹ìłķ": 2760,
      "Ġë²Ĺ": 2761,
      "Ġìĭłì²Ń": 2762,
      "ìĿ´ëŀĢ": 2763,
      "Ġë¬ĺ": 2764,
      "íļĮìĤ¬": 2765,
      "Ġëĭ¨ìĪľ": 2766,
      "ìĭľìĿĺ": 2767,
      "ëĶ©": 2768,
      "Ġwith": 2769,
      "Ġìĸ¸ìĸ´": 2770,
      "ëıĻìĿĺ": 2771,
      "Ġ2007": 2772,
      "Ġ...": 2773,
      "ëĮĢíĳľ": 2774,
      "Ġì£¼ìłľ": 2775,
      "Ġëĵł": 2776,
      "Ġ60": 2777,
      "Ġíĸīë³µ": 2778,
      "ĠìĤ¬íķŃ": 2779,
      "Ġíķµìĭ¬": 2780,
      "Ġë¶Ģìłķ": 2781,
      "ì§ĢìļĶ": 2782,
      "ĠìķĪìłķ": 2783,
      "ìķĦìĿĺ": 2784,
      "Ġêµ¬ë¶Ħ": 2785,
      "ĠíĮĮìķħ": 2786,
      "ìłĦìŀĲ": 2787,
      "Ġìŀĳìļ©": 2788,
      "ĠìłķìĿĺ": 2789,
      "Ġê±´ìĦ¤": 2790,
      "**": 2791,
      "Ġê°Ķ": 2792,
      "Ġìı": 2793,
      "ĠìĦ±ìĿ¸": 2794,
      "ìŀĲìĿ¸": 2795,
      "ĠìĽĢì§ģ": 2796,
      "Ġ##+": 2797,
      "Ġëĭ¨ê³Ħ": 2798,
      "Ġê¸°ë°ĺ": 2799,
      "Ġíķ´ìĻ¸": 2800,
      "Ġê²½ìĺģ": 2801,
      "ĠíĿ¥": 2802,
      "íĻĺìŀĲ": 2803,
      "Ġìĸ¸ê¸ī": 2804,
      "Ġas": 2805,
      "ĠìĿ¸ìĤ¬": 2806,
      "ĠìĹĦë§Ī": 2807,
      "ĠëĿ": 2808,
      "ht": 2809,
      "Ġíŀĺëĵ¤": 2810,
      "ĠìĦ¼": 2811,
      "ĠíĻľìĦ±": 2812,
      "íİĺìĿ´ì§Ģ": 2813,
      "ìĬ¤ëŁ½": 2814,
      "ĠìŀĦìĥģìĭľíĹĺ": 2815,
      "Ġë©Ģ": 2816,
      "ëĵľë¦¬": 2817,
      "ê³Ħíļį": 2818,
      "23": 2819,
      "ĠëĮĢìĤ¬": 2820,
      "Ġ##%,": 2821,
      "Ġì»¨": 2822,
      "Ġì°¸ê°Ģ": 2823,
      "Ġìŀĳê°Ģ": 2824,
      "Ġ%": 2825,
      "ìķĦëĵ¤": 2826,
      "Ġ^": 2827,
      "Ġ31": 2828,
      "Ġë¥´": 2829,
      "ë§ĪíĬ¸": 2830,
      "Ġë°Ķíĥķ": 2831,
      "ìĦŃ": 2832,
      "ĠìłĦíĪ¬": 2833,
      "ĠìľłìĿĺ": 2834,
      "ĠìĪĺê°Ģ": 2835,
      "ë¡¤": 2836,
      "ë¥¨": 2837,
      "Ġëĭ¨ì²´": 2838,
      "åŃ": 2839,
      "Ġê°Ģìł¸": 2840,
      "ë¦¬ì¦Ī": 2841,
      "Ġë¶Ģëĭ´": 2842,
      "ĠìłľìķĪ": 2843,
      "Ġê°ĲìĹ¼": 2844,
      "40": 2845,
      "ĠíĥĲ": 2846,
      "Ġé": 2847,
      "ëĢ": 2848,
      "Ġìĩ¼": 2849,
      "ìľĦìĽĲìŀ¥": 2850,
      "rom": 2851,
      "ĠìĺĪë°©": 2852,
      "ì½ľ": 2853,
      "ëĮĢíķĻêµĲ": 2854,
      "Ġë¹ĦíĮĲ": 2855,
      "ĠëĤĻ": 2856,
      "Ġì¶©ë¶ĦíŀĪ": 2857,
      "Ġë¶Īêµ¬": 2858,
      "Ġíĳ¸": 2859,
      "ĨĴ": 2860,
      "ĠìĪĺìĪł": 2861,
      "ĠìĪľê°Ħ": 2862,
      "Ġë³´íĨµ": 2863,
      "ìĭ¸": 2864,
      "ĠëĤĺìĿ´": 2865,
      "Ġ`": 2866,
      "Ġëª¨ëį¸": 2867,
      "Ġê°Ĳìłķ": 2868,
      "ue": 2869,
      "ere": 2870,
      "Ġëı¼": 2871,
      "Ġíķ´ëıĦ": 2872,
      "Ġë¶Ħë¥ĺ": 2873,
      "ìĩĦ": 2874,
      "Ġë²ķë¥ł": 2875,
      "íŀĪëł¤": 2876,
      "ĠëĤĺíĥĢëĤľ": 2877,
      "our": 2878,
      "Ġëķħ": 2879,
      "ip": 2880,
      "ain": 2881,
      "Ġëĭ¹ìĭł": 2882,
      "Ġì¡°ìĦ±": 2883,
      "ĠíĨµíķľ": 2884,
      "ëıĦìĭľ": 2885,
      "Ġë¿": 2886,
      "26": 2887,
      "íķĳ": 2888,
      "28": 2889,
      "íĸīìľĦ": 2890,
      "199": 2891,
      "Ġê°Ģìłķ": 2892,
      "km": 2893,
      "Ġì¸¡ìłķ": 2894,
      "ĠìĨĮìĨį": 2895,
      "ì§ĢëıĦ": 2896,
      "ĠìĿĺìķ½íĴĪ": 2897,
      "Ġ195": 2898,
      "ì¹ĺë£Į": 2899,
      "Ġê²ĢíĨł": 2900,
      "Ġê³µë¶Ģ": 2901,
      "ëĤĺë¬´": 2902,
      "ep": 2903,
      "Ġì²ŃìĨĮëħĦ": 2904,
      "Ġì°¬": 2905,
      "Ġìłĳê·¼": 2906,
      "Ġë°ĶëĢ": 2907,
      "Ġìŀĺëª»": 2908,
      "íķĻìĥĿ": 2909,
      "ĠíĺĦìŀ¥": 2910,
      "ëĵľìĭľ": 2911,
      "Ġìłľì¶ľ": 2912,
      "ê³ĦìĿĺ": 2913,
      "Ġê³µìĭĿ": 2914,
      "Ġì¢ħíķ©": 2915,
      "Ġì²´ê³Ħ": 2916,
      "Ġìį¨": 2917,
      "ĠíĺĦìĥģ": 2918,
      "Ġì½ľ": 2919,
      "ĠìļĶìĨĮ": 2920,
      "ĠëĿ¼ìĿ´": 2921,
      "Ġë§Īì¹ĺ": 2922,
      "Ġê³µê¸ī": 2923,
      "Ġê²ª": 2924,
      "Ġì§Ģì§Ģ": 2925,
      "Ġìĺ¤íŀĪëł¤": 2926,
      "Ġìĭ¤ìłľë¡ľ": 2927,
      "ub": 2928,
      "up": 2929,
      "ë¦¬ì¹´": 2930,
      "ëĶĶìĺ¤": 2931,
      "Ġë³´ìŀ¥": 2932,
      "Ġìĺ¤ëŀĺ": 2933,
      "Ġìĸĺ": 2934,
      "¨¸": 2935,
      "Ġì¡°ê±´": 2936,
      "êµ°ìĿĺ": 2937,
      "Ġìĸ´ë¨¸": 2938,
      "ìĬ¤íģ¬": 2939,
      "ĠìĹĺ": 2940,
      "Ġë¹Ľ": 2941,
      "og": 2942,
      "íĺĪìķķ": 2943,
      "ĠìłĦíĺĢ": 2944,
      "ĠëĮĢë¹Ħ": 2945,
      "Ġ2019": 2946,
      "ê²½ê¸°": 2947,
      "ĠìĦ±ë¶Ħ": 2948,
      "Ġ2006": 2949,
      "Ġì¶ľìĭł": 2950,
      "ìĭľíĤ¨": 2951,
      "Ġbe": 2952,
      "Ġê°ķëł¥": 2953,
      "Ġì¸¡ë©´": 2954,
      "ëĸ": 2955,
      "Ġê³łìļ©": 2956,
      "ĠCh": 2957,
      "ìĬµëĭĪê¹Į": 2958,
      "ĠìĪĺìļ©": 2959,
      "ëŁ¬ìĬ¤": 2960,
      "ĠìĿ´ëķĮ": 2961,
      "Ġê¸°ìĤ¬": 2962,
      "ìĽĥ": 2963,
      "ë¶ĢìłĦ": 2964,
      "Ġì§ĪíĻĺ": 2965,
      "ë¦ŃíĦ°": 2966,
      "ĠëĬĲëģ¼": 2967,
      "ĠìļĶìķ½": 2968,
      "Ġëį°ìĿ´íĦ°": 2969,
      "ê¿": 2970,
      "Ġë¶Ħëªħ": 2971,
      "íķ´ëıĦ": 2972,
      "ĠìļĶìĿ¸": 2973,
      "ĠíĽĪ": 2974,
      "Ġë©´íĹĪì¦Ŀ": 2975,
      "ĠìĤ¬ëĿ¼": 2976,
      "Ġë°ĺìĺģ": 2977,
      "Ġë³µì§Ģ": 2978,
      "Ġìĸ´ëł¤ìļ´": 2979,
      "ĠëŁ°": 2980,
      "Ġë°ĺëĵľìĭľ": 2981,
      "ëŀ«": 2982,
      "Ġê¸°ì´Ī": 2983,
      "ĠìłĦë§Ŀ": 2984,
      "íĮĮíĬ¸": 2985,
      "ĠìĿ¼ìĸ´ëĤĺ": 2986,
      "Ġìłķë¦¬": 2987,
      "Ġìŀĥ": 2988,
      "ard": 2989,
      "Ġì»´": 2990,
      "ĠëĤĺìĻĶ": 2991,
      "Ġë°ĺë©´": 2992,
      "ëłĢ": 2993,
      "íĸīìłķ": 2994,
      "ëłī": 2995,
      "ë§¨": 2996,
      "ĠëĮĢíĻĶ": 2997,
      "Ġë°¥": 2998,
      "ĠìĺĨ": 2999,
      "ĠìĽĲëŀĺ": 3000,
      "ë·°": 3001,
      "Ġê·¼ë¬´": 3002,
      "Ġì§Īë¬¸": 3003,
      "ĠëĮĢíļĮ": 3004,
      "Ġ2005": 3005,
      "ëł´": 3006,
      "íķµ": 3007,
      "ìĽħ": 3008,
      "ev": 3009,
      "ĠìĦ±ê³¼": 3010,
      "ĠìĺģìĹŃ": 3011,
      "ĵ¨": 3012,
      "ë¦¼íĶ½": 3013,
      "are": 3014,
      "Ġíĺĳëł¥": 3015,
      "Ġê³µê³µ": 3016,
      "ãħł": 3017,
      "ant": 3018,
      "ĠëĮĢìĿĳ": 3019,
      "ĠêµŃíļĮ": 3020,
      "ĠìĿ´ëģ": 3021,
      "Ġëģ¼": 3022,
      "Ġë¹Ħìļ©": 3023,
      "ë³¸ìĿĺ": 3024,
      "ëĮĢíļĮ": 3025,
      "ê³łìĿĺ": 3026,
      "ĠìĨĮìķĦ": 3027,
      "Ġ##âĢĻ,": 3028,
      "ë¬¼ìĿĺ": 3029,
      "Ġì¡¸ìĹħ": 3030,
      "ë¤Ħ": 3031,
      "Ġíķ´ìĦĿ": 3032,
      "ìĿ´ë²Ī": 3033,
      "Ġê´": 3034,
      "ë§ĮìĿĺ": 3035,
      "ĠIn": 3036,
      "Ī¼": 3037,
      "Ġê°ģì¢ħ": 3038,
      "ĠìĿ¸ëıĦ": 3039,
      "íĨ¤": 3040,
      "Ġê±±": 3041,
      "ìĽ¨": 3042,
      "ìĬ´": 3043,
      "ĠìĭľìłĪ": 3044,
      "Ġìĺģìĥģ": 3045,
      "ĠìĨĶ": 3046,
      "ìĿ´íģ¬": 3047,
      "ĠìĦ¤ìłķ": 3048,
      "ìī¬": 3049,
      "ĠìŀĲìĦ¸": 3050,
      "Ġë¶Ģë¥´": 3051,
      "ĠìłĦëĭ¬": 3052,
      "ëĭĪìķĦ": 3053,
      "80": 3054,
      "ĠìĭľëıĦ": 3055,
      "Ġìµľì¢ħ": 3056,
      "Ġìķī": 3057,
      "ĠìĪĺìĹħ": 3058,
      "Ġë³´ìĺĢ": 3059,
      "ì§Īë¬¸": 3060,
      "Ġê³łëł¹": 3061,
      "¾Į": 3062,
      "ìŀĲê¸°": 3063,
      "ì§ĵ": 3064,
      "Ġì¤ĳì¦Ŀ": 3065,
      "Ġìĸ´ë¨¸ëĭĪ": 3066,
      "ëŁ´": 3067,
      "Ġì§ĳëĭ¨": 3068,
      "60": 3069,
      "Ġê³łë¯¼": 3070,
      "íı¬ì¸ł": 3071,
      "Ġìĭ¤íĹĺ": 3072,
      "Ġì¶ķêµ¬": 3073,
      "Ġê´Ģê´ĳ": 3074,
      "Ġê³łê°Ŀ": 3075,
      "Ġë¹¼": 3076,
      "ang": 3077,
      "Ġê´´": 3078,
      "Įë¦¬": 3079,
      "ëĶ°": 3080,
      "íĬ¼": 3081,
      "22": 3082,
      "Ġì§Ħë£Į": 3083,
      "Ġìĭ¬ê°ģ": 3084,
      "ê³µìĤ¬": 3085,
      "ĠìĿĺë¬´": 3086,
      "ìķĦìĿ´": 3087,
      "ĠìºĲë¦ŃíĦ°": 3088,
      "ëĭĿ": 3089,
      "ì¤Ģëĭ¤": 3090,
      "Ġby": 3091,
      "Ġë³´ê´Ģ": 3092,
      "ĠìĦ±ê²©": 3093,
      "ìļĶìĿ¼": 3094,
      "Ġìĸ¼ë§ĪëĤĺ": 3095,
      "Ġìłľì£¼": 3096,
      "ìĸ´ëĤ¬": 3097,
      "ĠìĿ´ë¡ł": 3098,
      "Ġë¬»": 3099,
      "Ġìļ°ëł¤": 3100,
      "ĠìĹ´ë¦°": 3101,
      "ì¶°": 3102,
      "Ġwh": 3103,
      "Ġê»": 3104,
      "Ġìĺģìĸ´": 3105,
      "ĠìĺĪìĪł": 3106,
      "ud": 3107,
      "åľ": 3108,
      "Ġì¡°ìłĪ": 3109,
      "Ġë§Įëĵľ": 3110,
      "Ġëļ": 3111,
      "BC": 3112,
      "ëŀįëĭĪëĭ¤": 3113,
      "ìłł": 3114,
      "ĠìĿ´ê³³": 3115,
      "ĠìĿ¸íĦ°ëĦ·": 3116,
      "íĳ¸": 3117,
      "ĠíĥĿ": 3118,
      "Ġë°©ìķĪ": 3119,
      "Ġìķ¡": 3120,
      "27": 3121,
      "ĠëĤ¨ìĦ±": 3122,
      "ĠëıĦë¡ľ": 3123,
      "íĺĪì¦Ŀ": 3124,
      "íİĺìĿ¸": 3125,
      "įìłķ": 3126,
      "Ġì¤ĳì§Ģ": 3127,
      "ĠëĤ´ë¶Ģ": 3128,
      "Ġìĺ®": 3129,
      "ĠíĮ¬": 3130,
      "Ġëĥ": 3131,
      "ĠìĹĲëĦĪì§Ģ": 3132,
      "ĠìłĦíĻĺ": 3133,
      "ìļĶë²ķ": 3134,
      "ĠëĤĺìĻĢ": 3135,
      "ë©´ìĦľëıĦ": 3136,
      "ĠíļĮìĿĺ": 3137,
      "Ġal": 3138,
      "Ġìĸµìłľ": 3139,
      "ĠìĿ´ëĤł": 3140,
      "íļĮìŀ¥": 3141,
      "Ġì¶ľìĹ°": 3142,
      "ì´ī": 3143,
      "ëĵ±ë¡Ŀ": 3144,
      "ĠêµĲíĨµ": 3145,
      "Ġê³µìĹ°": 3146,
      "ĠíĭĢëĭĪ": 3147,
      "Ġìĺ¤íĽĦ": 3148,
      "ive": 3149,
      "íĥĢë¯¼": 3150,
      "Ġìĭ±": 3151,
      "ĠëĶĶìŀĲìĿ¸": 3152,
      "ì§Ŀ": 3153,
      "ê³¼íķĻ": 3154,
      "ìĭľì¼°": 3155,
      "ì»¬": 3156,
      "Ġìĸ´ë¦°ìĿ´": 3157,
      "Ġëĭ¹ìĹ°": 3158,
      "Ġat": 3159,
      "ìĭ±": 3160,
      "Ġìĺ¥": 3161,
      "ĠìĹĦì²Ń": 3162,
      "ĠìłĬ": 3163,
      "Ġ##`": 3164,
      "Ġì§ľ": 3165,
      "ë¯¼ì£¼": 3166,
      "ĠìĪĺìĤ¬": 3167,
      "íľ´": 3168,
      "Ġìĭłë¢°": 3169,
      "ê½": 3170,
      "ĠìļĶì²Ń": 3171,
      "ore": 3172,
      "íĨłë¦¬": 3173,
      "ĠíĶĮëłĪìĿ´": 3174,
      "Ġê´ĳì£¼": 3175,
      "Ġê·¼ë¡ľ": 3176,
      "Ġì§Ģêµ¬": 3177,
      "ĠìķĦë¦Ħ": 3178,
      "ĠìłĦê¸°": 3179,
      "íĶĦíĬ¸": 3180,
      "Ġíģ¬ê¸°": 3181,
      "ë§İ": 3182,
      "Ġë§Įì¡±": 3183,
      "Ġíķľëĭ¤ê³ł": 3184,
      "ĠëĤĺëĪĦ": 3185,
      "ìĭľëĮĢ": 3186,
      "ĠX": 3187,
      "ĠëĤ©": 3188,
      "Ġíĺ¸íĿ¡": 3189,
      "ĠìĤ¬ë¬´": 3190,
      "ĠìĿ¸ê¸°": 3191,
      "Ġ80": 3192,
      "Ġëª¨ìĸĳ": 3193,
      "ê¸īìĹ¬": 3194,
      "Ġì¶Ķìłķ": 3195,
      "ort": 3196,
      "Ġê¶Įë¦¬": 3197,
      "Ġì§Ģê¸ī": 3198,
      "Ġìĵ¸": 3199,
      "ĠìĥĿëªħ": 3200,
      "Ġë½": 3201,
      "ld": 3202,
      "Ġì§ĳíĸī": 3203,
      "ëģĶ": 3204,
      "ëĵ±íķĻêµĲ": 3205,
      "Ġê°Ŀ": 3206,
      "Ġë¶ĢìĹ¬": 3207,
      "Ġìĸĺê¸°": 3208,
      "Ġìĵ´": 3209,
      "ë´Ĳ": 3210,
      "Ġê±°ëŀĺ": 3211,
      "ìĿĺìĤ¬íĺĳíļĮ": 3212,
      "Ġê±±ìłķ": 3213,
      "Ġìłľê¸°": 3214,
      "ë¶Ļ": 3215,
      "ì§ĢìĿĺ": 3216,
      "Ġìļ°ìĬ¹": 3217,
      "ĠëĶ±": 3218,
      "Ġâĸ²": 3219,
      "Ġìŀ¥ìĨĮ": 3220,
      "Ġë³ĳìļ©": 3221,
      "íĤ¹": 3222,
      "ĠëĮĢêµ¬": 3223,
      "Ġì¡°ì¹ĺ": 3224,
      "ĠíĥĢìĿ´": 3225,
      "Ġëĺ": 3226,
      "Ġcon": 3227,
      "ĠìĿ¸ì²ľ": 3228,
      "ĠëģĬ": 3229,
      "Ġ2004": 3230,
      "æĸ": 3231,
      "Ġê¸°ëĭ¤": 3232,
      "ì¼ĵ": 3233,
      "Ġê±´ì¶ķ": 3234,
      "ĠìĹ¬ìłĦíŀĪ": 3235,
      "ĠìĬ¤íĬ¸": 3236,
      "ë¬¸ìłľ": 3237,
      "ë¡ľìĿ´ëĵľ": 3238,
      "ì§Ĳ": 3239,
      "Ġì°¨ìĽĲ": 3240,
      "Ġê·¼ìľ¡": 3241,
      "ì½ĺ": 3242,
      "ë¨¸ëĭĪ": 3243,
      "ĠëĤĺìĿĺ": 3244,
      "Ġëħ¸ìĿ¸": 3245,
      "Ġëī´ìĬ¤": 3246,
      "Ġì£¼ëª©": 3247,
      "Ġ2020": 3248,
      "29": 3249,
      "ê°Ĵ": 3250,
      "Ġê±°ì³Ĳ": 3251,
      "ĠìĮĵ": 3252,
      "Ġëĥī": 3253,
      "ĠìķĦì¹¨": 3254,
      "ĠíĺĪìķ¡": 3255,
      "Ġì§§": 3256,
      "Ġê±°ê¸°": 3257,
      "ĠìĪĺìĥģ": 3258,
      "Ġíĺľ": 3259,
      "Ġë²Ķì£Ħ": 3260,
      "Ġì¢ħë¥ĺ": 3261,
      "ĠëįĶë¶Ī": 3262,
      "ĠìĽĲì¹Ļ": 3263,
      "ë²Īíĺ¸": 3264,
      "ĠëĵľëĿ¼ë§Ī": 3265,
      "Ġì°¸ìĦĿ": 3266,
      "Ġëĭ¬ëĿ¼": 3267,
      "ĠíĿĺ": 3268,
      "ĠìķĦë§Ī": 3269,
      "Ġì§Ħì¶ľ": 3270,
      "Ġì¡°ìłķ": 3271,
      "Ġì£Ħ": 3272,
      "ìĦ¸ê³Ħ": 3273,
      "íķĺìĿĺ": 3274,
      "Ġë¶ĦìľĦê¸°": 3275,
      "ìĿĺíļĮ": 3276,
      "ĠíļĮë³µ": 3277,
      "Ġë¶Īë¦¬": 3278,
      "ell": 3279,
      "ĠìķŀìĦľ": 3280,
      "ĠëĲ©ëĭĪëĭ¤": 3281,
      "ĠíĨµê³Ħ": 3282,
      "ëĮĢìĥģ": 3283,
      "íķĻëħĦ": 3284,
      "ìĹĲìĦł": 3285,
      "íļ¨ê³¼": 3286,
      "ìĿĺíķĻ": 3287,
      "Ġê¸¸ìĿ´": 3288,
      "ë¦¬ê·¸": 3289,
      "kg": 3290,
      "Ġëħ¸ì¶ľ": 3291,
      "êµŃë¯¼": 3292,
      "ĠëŁ¬ìĭľìķĦ": 3293,
      "ìĶ¬": 3294,
      "Ġì§Ħëĭ¨": 3295,
      "The": 3296,
      "ì»µ": 3297,
      "Ġìĭ¤íĮ¨": 3298,
      "ĠìłĦíĻĶ": 3299,
      "Ġë³¸ìĿ¸": 3300,
      "ëĤĺê°Ģ": 3301,
      "Ġ2003": 3302,
      "ëł¤ë©´": 3303,
      "ê°ĢìĿĺ": 3304,
      "ĠíķŃìĥģ": 3305,
      "ĠìĿ´ë¯¸ì§Ģ": 3306,
      "ì°®": 3307,
      "Ġì²Ļ": 3308,
      "ëĳ¥": 3309,
      "Ġãħł": 3310,
      "Ġìĺ·": 3311,
      "Ġê´ĳê³ł": 3312,
      "¯¤": 3313,
      "ĠìĥģíĴĪ": 3314,
      "ĠëĮ": 3315,
      "Ġê¸įìłķ": 3316,
      "íĵ¨": 3317,
      "Ġìĭľë¦¬ì¦Ī": 3318,
      "ear": 3319,
      "ê´": 3320,
      "ê¸°ì¤Ģ": 3321,
      "ĠëĴ·": 3322,
      "ĠíĨ": 3323,
      "Ġ70": 3324,
      "ĠìłĦìŀĲ": 3325,
      "Ġê¶Įìŀ¥": 3326,
      "ĠìĿ´ìĿµ": 3327,
      "Ġì§Ħì§ľ": 3328,
      "Ġìłľìķ½": 3329,
      "ëª°": 3330,
      "ê²ĢìĤ¬": 3331,
      "Ġì°¨ëŁī": 3332,
      "ĠìĨĮìŀ¬": 3333,
      "Ġêµ¬ë§¤": 3334,
      "Ġìĥģê´Ģ": 3335,
      "ì¹¸": 3336,
      "Ġê²ģ": 3337,
      "ìĦ¯": 3338,
      "Ġ193": 3339,
      "ê·¸ëŀĺ": 3340,
      "Ġë°ĺë³µ": 3341,
      "ëĶĺ": 3342,
      "íĴĢ": 3343,
      "Ġë¦¬ê·¸": 3344,
      "ë¡ľìĬ¤": 3345,
      "ĠìĻĦìłĦíŀĪ": 3346,
      "Ġìłķëĭ¹": 3347,
      "Ġ2002": 3348,
      "ĠìĹ°ê¸°": 3349,
      "åı": 3350,
      "ëŀĻ": 3351,
      "Ġë²½": 3352,
      "ê·¸ë¦¼": 3353,
      "Ġê³Ħê¸°": 3354,
      "ëł¬": 3355,
      "íĶĪ": 3356,
      "ĠìĨįëıĦ": 3357,
      "íĬ¹ë³Ħ": 3358,
      "ĠìĿ¸ìĥĿ": 3359,
      "ëĭ¨ìĿĺ": 3360,
      "Ġìĥģëĭ¹íŀĪ": 3361,
      "Ġ35": 3362,
      "Ġan": 3363,
      "ìĦľìļ¸": 3364,
      "ĠíĿĳ": 3365,
      "ĠëĤĺíĥĢëĤ´": 3366,
      "Ġë°ľëĭ¬": 3367,
      "ĠëĤ¨ë¶ģ": 3368,
      "ĠëĤĺë¬´": 3369,
      "ĠìłĪì°¨": 3370,
      "ĠìŀĲëıĻì°¨": 3371,
      "Ġë¯¼ê°Ħ": 3372,
      "Ġíı´": 3373,
      "ĠìłĦíķ´": 3374,
      "ìļ©ëŁī": 3375,
      "Ġë¯¼ì¡±": 3376,
      "end": 3377,
      "Ġì§Ģíķĺ": 3378,
      "ìłķëıĦ": 3379,
      "æĿ": 3380,
      "Ġìŀ¬ë¯¸": 3381,
      "¶¤": 3382,
      "ĠìķĮìķĦ": 3383,
      "Ġì§ģìĹħ": 3384,
      "ĠìĦłìĥĿ": 3385,
      "ê±´ê°ķ": 3386,
      "Ġë°ĽìķĦëĵ¤": 3387,
      "ë²ĦìĬ¤": 3388,
      "ëĭĪíĦ°": 3389,
      "Ġë¹Ħìľ¨": 3390,
      "ĠìĿĺìĭĿ": 3391,
      "ë°ĶìĿ´": 3392,
      "ìĹħì²´": 3393,
      "ĠQ": 3394,
      "ë¦¿": 3395,
      "Ġì¤": 3396,
      "ìŀĶ": 3397,
      "ĠìĿ´ë¤Ħ": 3398,
      "Ġëª©ìĨĮë¦¬": 3399,
      "ìķĪìłĦ": 3400,
      "Ġë°ĳ": 3401,
      "ëĵłì§Ģ": 3402,
      "Ġê´ľ": 3403,
      "Ġë²ĶìľĦ": 3404,
      "ìĺģíĻĶ": 3405,
      "Ġìµľì´Ī": 3406,
      "íķĻìŀĲ": 3407,
      "Ġë¸Įëŀľëĵľ": 3408,
      "Ġìľłíĺķ": 3409,
      "ì¡°ê±´": 3410,
      "Ġë³ĳëł¥": 3411,
      "Ġíļ¨ìľ¨": 3412,
      "ary": 3413,
      "Ġíļį": 3414,
      "Ġê¸°íļį": 3415,
      "se": 3416,
      "ëĬ¥ëł¥": 3417,
      "ĠíĨµìłľ": 3418,
      "ĠìĿ¸ìĥģ": 3419,
      "ëĬĲëĥĲ": 3420,
      "Ġìłľì¡°": 3421,
      "ĠìĹ°ìĨį": 3422,
      "êµŃê°Ģ": 3423,
      "Ġê·ł": 3424,
      "ëĨĢ": 3425,
      "Ġë¹ĦíĥĢë¯¼": 3426,
      "Ġë³´ëıĦ": 3427,
      "ĠìĿ´ìľłë¡ľ": 3428,
      "ĠìĨĮíĻĶ": 3429,
      "Ġêµ°ìĤ¬": 3430,
      "ëįĶëĭĪ": 3431,
      "Ġìķ¨": 3432,
      "Ġë°ĿíĺĢ": 3433,
      "ĠìŀĲê²©": 3434,
      "Ġê·¸ë¦¬ìĬ¤": 3435,
      "ë¥Ļ": 3436,
      "Ġíķ©ìĿĺ": 3437,
      "ìĦľë¹ĦìĬ¤": 3438,
      "Ġê·¸ë£¹": 3439,
      "Ġê³µìľł": 3440,
      "ĠìĪĺì¹ĺ": 3441,
      "ĠìĪĺì¶ľ": 3442,
      "ĠìĨĮìľł": 3443,
      "ë´¤": 3444,
      "ĠìĦŃ": 3445,
      "ĠíĬ¹ìĪĺ": 3446,
      "Ġê¸°ëħĲ": 3447,
      "Ġ##âĢ¤": 3448,
      "ë¹Ľ": 3449,
      "Ġë°Ķê¾¸": 3450,
      "ĠìĨĮë¹ĦìŀĲ": 3451,
      "ì°Į": 3452,
      "ĠìĨĮìĦ¤": 3453,
      "ĠíĽ¨": 3454,
      "ê·ľëª¨": 3455,
      "Ġìĸ¸ë¡ł": 3456,
      "ĠìĤ¼ìĦ±": 3457,
      "Ġì¶Ķì²ľ": 3458,
      "ĠKBS": 3459,
      "Ġíĺ¼ìŀĲ": 3460,
      "ĠìļĶì¦ĺ": 3461,
      "Ġìĺ¬ë¦¬": 3462,
      "ĠëĬ¦": 3463,
      "ĠìľĦìŀ¥": 3464,
      "ë²ķìĽĲ": 3465,
      "Ġë¶ĪìķĪ": 3466,
      "ìĦ¸ëĮĢ": 3467,
      "ì¹ĺê³¼ìĿĺìĤ¬íĺĳíļĮ": 3468,
      "Ġë´¤": 3469,
      "Ġëª¨ëĭĪíĦ°": 3470,
      "ìŀ¬ìĿĺ": 3471,
      "ib": 3472,
      "ë§Ľ": 3473,
      "ìĿį": 3474,
      "ĠíĮĲê²°": 3475,
      "Ġê·¸ëķĮ": 3476,
      "Ġë°°ê²½": 3477,
      "70": 3478,
      "Ġthat": 3479,
      "Ġì§ĵ": 3480,
      "ĠìķĮëł¤ìł¸": 3481,
      "ra": 3482,
      "Ġìļ°ìĪĺ": 3483,
      "Ġê¸Īì§Ģ": 3484,
      "ëŀĢëĵľ": 3485,
      "Ġìŀ¥ë©´": 3486,
      "ĠìĻĦìłĦ": 3487,
      "Ġìĭłì¤ĳ": 3488,
      "Ġë¹¨": 3489,
      "Ġë°ĶëŀįëĭĪëĭ¤": 3490,
      "ëĿ¼ìĦľ": 3491,
      "ĠìĿ´ëģĮ": 3492,
      "Ġhe": 3493,
      "ĠíĶĦë¦¬": 3494,
      "ëħ¼": 3495,
      "ì£½": 3496,
      "Ġë¬´ìĬ¨": 3497,
      "ëĵ¯ìĿ´": 3498,
      "ĠìĿ¼ëĭ¨": 3499,
      "ĠëĮĢíķľì¹ĺê³¼ìĿĺìĤ¬íĺĳíļĮ": 3500,
      "Ġê²Ģì°°": 3501,
      "ĠëªħìĿĺ": 3502,
      "qu": 3503,
      "ìĤ¬ëŀĮ": 3504,
      "act": 3505,
      "íı´": 3506,
      "ìĦłê±°": 3507,
      "Ġì³": 3508,
      "ë¦¬ìĿĺ": 3509,
      "ë¬ĺ": 3510,
      "ĠíĺĲ": 3511,
      "ë²ķìĿĺ": 3512,
      "Ġì¹´ëĵľ": 3513,
      "Ġë°ĶëĢĮ": 3514,
      "ff": 3515,
      "Ġì¶ľìĭľ": 3516,
      "ight": 3517,
      "ĠìĹ°ìŀ¥": 3518,
      "ê»´": 3519,
      "Ġê³µë¬´ìĽĲ": 3520,
      "ìĦ±ê³¼": 3521,
      "ong": 3522,
      "ê»ĺìĦľ": 3523,
      "ìłĿ": 3524,
      "ìĹŃìĭľ": 3525,
      "ìĿĢíĸī": 3526,
      "ĠìĿ¼ìŀĲë¦¬": 3527,
      "ĠìķħíĻĶ": 3528,
      "Ġë¶Īë²ķ": 3529,
      "Ġêµ´": 3530,
      "ĠìłĦë°ĺ": 3531,
      "ĠìĥĿê¸°": 3532,
      "Ġ##%(": 3533,
      "Ġìĭľê°ģ": 3534,
      "ê³łëĬĶ": 3535,
      "Ġë§ĽìŀĪ": 3536,
      "Ġ|-": 3537,
      "Ġëĭ¤ëĭĪ": 3538,
      "ĠìĹħì²´": 3539,
      "ë£¡": 3540,
      "ĠìĬ¹ë¦¬": 3541,
      "ìĭľê¸°": 3542,
      "ĠìŀĦë¶Ģ": 3543,
      "ìĿ¸íĬ¸": 3544,
      "ìĿ´ìĿĺ": 3545,
      "ust": 3546,
      "Ģë¡ľë²Į": 3547,
      "Ġíĥĳ": 3548,
      "ëıĻìĤ°": 3549,
      "ĠìĿ¼ìĥģ": 3550,
      "ĠíĥľëıĦ": 3551,
      "ĠìĪĺìĿµ": 3552,
      "Ġpro": 3553,
      "ìĿĢëį°": 3554,
      "ë°¥": 3555,
      "ĠìĺĽ": 3556,
      "ë°©ë²ķ": 3557,
      "æ°": 3558,
      "ĠíĺķìĭĿ": 3559,
      "ĠíıīíĻĶ": 3560,
      "ĠìĿ´ìĤ¬": 3561,
      "ì¢ħìĿĺ": 3562,
      "Ġë¬¸íķĻ": 3563,
      "Ġ2001": 3564,
      "Ġê´ĢìłĲ": 3565,
      "¬ìĺģ": 3566,
      "ëŁīìĿĺ": 3567,
      "ëĤ¼": 3568,
      "ìŀĲë£Į": 3569,
      "ìĬ¤ëŁ¬ìļ´": 3570,
      "Ġì¤ĳê°Ħ": 3571,
      "Ġì²ŃëħĦ": 3572,
      "Ġìŀ¥ê´Ģ": 3573,
      "Ġit": 3574,
      "Ġde": 3575,
      "Ġë°ľíĺĦ": 3576,
      "Ġìķ½ê°Ħ": 3577,
      "ê½ĥ": 3578,
      "ëĵ¬": 3579,
      "ast": 3580,
      "Ġì§Ģë°°": 3581,
      "ĠíĻķìłķ": 3582,
      "ĠíĻįë³´": 3583,
      "Ġìĭ¬ë¦¬": 3584,
      "ĠëłĪìĿ´": 3585,
      "ĠìĪĺìŀħ": 3586,
      "Ġ36": 3587,
      "ĠTV": 3588,
      "ĠìľłëıĦ": 3589,
      "Ġê¼¬": 3590,
      "ìļ´ëĵľ": 3591,
      "ëĭ¤ìļ´": 3592,
      "ìĸ´ëĵ¤": 3593,
      "ê¸°ê³Ħ": 3594,
      "Ġì§Ħìłķ": 3595,
      "çĶ": 3596,
      "ĠíĨµìĿ¼": 3597,
      "ì§Ģë°©": 3598,
      "ĠëıĮìķĦê°Ģ": 3599,
      "ëĬĶëį°ìļĶ": 3600,
      "ies": 3601,
      "ĠëĸłëĤĺ": 3602,
      "ĠìłĪëĮĢ": 3603,
      "Ġì¢ħêµĲ": 3604,
      "Ġë°Ķëĭ¤": 3605,
      "Ġêº¼": 3606,
      "Ġë³´ìĥģ": 3607,
      "ĠíĻķìĭ¤": 3608,
      "Ġë¬´ê¸°": 3609,
      "ord": 3610,
      "Ġê¸°ê³Ħ": 3611,
      "ĠìĬ¤íı¬ì¸ł": 3612,
      "ìľ¼ë©´ìĦľ": 3613,
      "Ġê·ľìłľ": 3614,
      "Ġë§Įìķ½": 3615,
      "ìģľ": 3616,
      "íķľíħĮ": 3617,
      "ĠìĺģìĹħ": 3618,
      "ì¡´ìĿĺ": 3619,
      "ëħģ": 3620,
      "ian": 3621,
      "ĠíĨµíķĺ": 3622,
      "Ġì§ĪìĿĺ": 3623,
      "Ġê³µìĤ¬": 3624,
      "ĠìĿĺì§Ģ": 3625,
      "Ġê°Īëĵ±": 3626,
      "ĠíĿ¬ë§Ŀ": 3627,
      "ĠìľĦìķ½": 3628,
      "ìłĦë¬¸": 3629,
      "Ġ90": 3630,
      "Ġëĭĺ": 3631,
      "ĠëĮĢìłĦ": 3632,
      "ĠíĨµê³¼": 3633,
      "íĺ¸ìĤ¬": 3634,
      "Ġcom": 3635,
      "Ġë¥ĺ": 3636,
      "íħĲì¸ł": 3637,
      "Ġìĥ¤": 3638,
      "ĠâĨĴ": 3639,
      "uc": 3640,
      "ĠëĳĶ": 3641,
      "ìĺĢìľ¼ëĤĺ": 3642,
      "íķľëĭ¤ë©´": 3643,
      "ëĭĪìĬ¤": 3644,
      "Ġìĸ´ì©": 3645,
      "ë²ķìĿ¸": 3646,
      "ìģĺ": 3647,
      "ĠíĽ¨ìĶ¬": 3648,
      "ĠëĵĿ": 3649,
      "Ġìķ½êµŃ": 3650,
      "ĠìĻ¸ë¶Ģ": 3651,
      "Ġìĥģëĭ´": 3652,
      "Ġê²½êµ¬": 3653,
      "¥Ĳ": 3654,
      "Ġì¦Ŀê±°": 3655,
      "ìłĿíĬ¸": 3656,
      "ide": 3657,
      "ìĽĲìĿĺ": 3658,
      "Ġìłľê±°": 3659,
      "ë¦¬ìĸ´": 3660,
      "Ġ33": 3661,
      "ä¹": 3662,
      "Ġpl": 3663,
      "ĠëĮĢìĹ¬": 3664,
      "ë²Ħë¦¬": 3665,
      "Ġìĭłìŀ¥": 3666,
      "Ġë´Ħ": 3667,
      "Ġì£¼ìĿ¸ê³µ": 3668,
      "Ġì§Ģì¼ľ": 3669,
      "íĵ¨íĦ°": 3670,
      "ìĹħìĿĺ": 3671,
      "ĠìĤ¬ìĥģ": 3672,
      "Ġê°Ģë¥´": 3673,
      "Ġê°ĦìĿĺ": 3674,
      "ĠìĥģìĿĺ": 3675,
      "ĠìĭľìłĲ": 3676,
      "Ġë³¸ê²©": 3677,
      "Ġì«": 3678,
      "ìŀĲì¹ĺ": 3679,
      "ĠìĦ¤ê³Ħ": 3680,
      "ëħķ": 3681,
      "ë¦ī": 3682,
      "ìĽĮíģ¬": 3683,
      "ĠëĦĺìĸ´": 3684,
      "Ġ300": 3685,
      "ĠìľĦê¸°": 3686,
      "Ġëľ¨": 3687,
      "ĠëıĦì°©": 3688,
      "ĠëŀĮ": 3689,
      "Ġì£¼ìĭĿ": 3690,
      "ëĲ¨": 3691,
      "ĠìĪĺìłķ": 3692,
      "Ġë»": 3693,
      "Ġ34": 3694,
      "ĠìŀĲê¸Ī": 3695,
      "Ġëĭ¤ìĿ´": 3696,
      "ì»¨": 3697,
      "Ġë³´ìľł": 3698,
      "íĬ¹íŀĪ": 3699,
      "Ġë²ĦìĬ¤": 3700,
      "ĠìĹ¬ë¦Ħ": 3701,
      "Ġì²¨": 3702,
      "ĠëĮĢì¤ĳ": 3703,
      "Ġëĭ¹ëĩ¨": 3704,
      "ìķĦëŀĺ": 3705,
      "ê´Ħ": 3706,
      "ì§ĢíĦ¸": 3707,
      "Ġìĭ¬ìĤ¬": 3708,
      "ĠíĻķìŀ¥": 3709,
      "Ġíľĺ": 3710,
      "ëĳĶ": 3711,
      "Ġíķľê³Ħ": 3712,
      "ĠìĿ¸ìļ©": 3713,
      "Ġëĺĳ": 3714,
      "ë©¸": 3715,
      "Ġê°Ħëĭ¨": 3716,
      "ĠìĿĺíĺĳ": 3717,
      "ok": 3718,
      "ìĭĿìĿĺ": 3719,
      "ment": 3720,
      "ëĭĻ": 3721,
      "ĠìĿĺëıĦ": 3722,
      "ĠìķĦíĮĮíĬ¸": 3723,
      "Ġë°ľë§¤": 3724,
      "ä»": 3725,
      "Ġì£½ìĿĮ": 3726,
      "íĢ": 3727,
      "ê´ĢìĿĺ": 3728,
      "ĠìľłìĿ¼": 3729,
      "ì§Ģìĸ´": 3730,
      "íĮĶ": 3731,
      "Ġë¹łë¥´": 3732,
      "ì¯¤": 3733,
      "ĠìĪĺë¦½": 3734,
      "Ġê°ĢìĬ´": 3735,
      "ts": 3736,
      "Ġê·¸ëŁ¼": 3737,
      "ëĭ¨ê³Ħ": 3738,
      "Ġìĭ«": 3739,
      "Ġê²½ê¸°ëıĦ": 3740,
      "åį": 3741,
      "Ġìľłë°ľ": 3742,
      "Ġë§¤ìĿ¼": 3743,
      "ĠìłĦìĭł": 3744,
      "Ġê±¸ì³Ĳ": 3745,
      "Ġìºł": 3746,
      "ĠíķĺëĬĺ": 3747,
      "ìĤ¬ìŀĲ": 3748,
      "ect": 3749,
      "Ġìķĺ": 3750,
      "ĠìŀĲìĤ´": 3751,
      "ĠìĻĦìĦ±": 3752,
      "ver": 3753,
      "Ġê°ľìĿĺ": 3754,
      "ĠëĳĺëŁ¬": 3755,
      "å·": 3756,
      "Ġê·¸ëŀĺëıĦ": 3757,
      "Ġëħ¼ëŀĢ": 3758,
      "ìĹĲìļĶ": 3759,
      "33": 3760,
      "ê°Ħëĭ¤": 3761,
      "ë¨¸ì§Ģ": 3762,
      "íĨµìłľ": 3763,
      "Ġë§º": 3764,
      "YP": 3765,
      "Ġëŀĳ": 3766,
      "ĠìłĦìĭľ": 3767,
      "Ġê²¸": 3768,
      "ëĭ¤ë¥¸": 3769,
      "Ġì£¼ëıĦ": 3770,
      "ĠìĬ¤ë§ĪíĬ¸": 3771,
      "Ġê¸°ìĹ¬": 3772,
      "Ġfrom": 3773,
      "ì²´ê³Ħ": 3774,
      "Ġíĳľìĭľ": 3775,
      "ĠíĢ": 3776,
      "Ġì£¼íĥĿ": 3777,
      "Ġì´Īëĵ±": 3778,
      "íĪ¬ìŀĲ": 3779,
      "ëħĢìĿĺ": 3780,
      "ĠìĿ´ë£¨ìĸ´ì§Ģ": 3781,
      "Ġíĺ¸íħĶ": 3782,
      "íĽĦêµ°": 3783,
      "ĠëĨįëıĦ": 3784,
      "Ġìĸ´ëł¤ìĽĢ": 3785,
      "ê²Ĳ": 3786,
      "Ġìłķê¸°": 3787,
      "Ġë¶Īê³¼": 3788,
      "ĠíħĶ": 3789,
      "Ġìľłë¦¬": 3790,
      "Ġì§ģìŀ¥": 3791,
      "Ġ38": 3792,
      "ìĭľìĺ¤": 3793,
      "íİľ": 3794,
      "ĠìłĦë¶Ģ": 3795,
      "íĭ±": 3796,
      "Ġì²ĺì¹ĺ": 3797,
      "ëĳĺ": 3798,
      "Ġìĺ¤ë¥¸": 3799,
      "åĲ": 3800,
      "Ġëĭ¨ìĸ´": 3801,
      "ĠëĤĺëĪ": 3802,
      "ê·¸ë¦¬": 3803,
      "Ġìŀĩ": 3804,
      "ĠâĢ¢": 3805,
      "ĠëªħíĻķ": 3806,
      "Ġê±°ì£¼": 3807,
      "Ġ45": 3808,
      "Ġì°¸ì¡°": 3809,
      "Ġìĺ¬ë¦¼íĶ½": 3810,
      "íĬľ": 3811,
      "ich": 3812,
      "Ġê°ķíķľ": 3813,
      "Ġ##âĪ¼": 3814,
      "ë³ĳì¦Ŀ": 3815,
      "íķ´ì§Ħ": 3816,
      "ĠëĦĲ": 3817,
      "ë¦½ëĭĪëĭ¤": 3818,
      "ĠëĬĲê»´": 3819,
      "ëªĩ": 3820,
      "Ġë¡Ŀ": 3821,
      "çĽ": 3822,
      "ĠëĤ³": 3823,
      "ëª½": 3824,
      "Ġíĺģìĭł": 3825,
      "ëĤ©": 3826,
      "ìŀĸ": 3827,
      "Ġìĭłê³ł": 3828,
      "Ġìĭ¬ìŀ¥": 3829,
      "ĠëĤĺë¨¸ì§Ģ": 3830,
      "ì°į": 3831,
      "Ġ->": 3832,
      "Ġì²´íĹĺ": 3833,
      "Ġã": 3834,
      "ĠíĻķìĤ°": 3835,
      "ëĤ´ìļ©": 3836,
      "Ġëĭ¬ìĦ±": 3837,
      "Ġíĳľì¤Ģ": 3838,
      "Ġìĥģì§ķ": 3839,
      "35": 3840,
      "ĠìŀĦëªħ": 3841,
      "ĠìĥĪë¡ľ": 3842,
      "Ġìļ°ì£¼": 3843,
      "ëĮĢíķľ": 3844,
      "Ġê²ł": 3845,
      "ĠLe": 3846,
      "Ġì§Ĳ": 3847,
      "Ġë³´ì¡°": 3848,
      "Ġê°Ģë¦¬": 3849,
      "Ġëª¨ëĭĪíĦ°ë§ģ": 3850,
      "ëıĦë¡ľ": 3851,
      "ìķŀ": 3852,
      "Ġêµ¬ìĹŃ": 3853,
      "ê°ĻìĿ´": 3854,
      "ìĹ¬ìĭľ": 3855,
      "ìĹ½": 3856,
      "ì¡°ì°¨": 3857,
      "âĸ": 3858,
      "Ġê¹Ķ": 3859,
      "Ġ32": 3860,
      "ìĩ¼": 3861,
      "Ġìĺ¤ìłĦ": 3862,
      "ë¬¸íķĻ": 3863,
      "å±": 3864,
      "ìĭłê²½": 3865,
      "Ġìŀ¬ìłķ": 3866,
      "ë¶ĦìĦĿ": 3867,
      "AR": 3868,
      "ĠìŀĲìĽĲ": 3869,
      "ĠìĽ¨": 3870,
      "ĠíĹĮë²ķ": 3871,
      "90": 3872,
      "Ġë¬¼ë¦¬": 3873,
      "ìĨĶ": 3874,
      "Ġê³łíĨµ": 3875,
      "ìĹ¬ìĦľ": 3876,
      "Ġë§¨": 3877,
      "ê¶ĮìĿĺ": 3878,
      "Ġê·¸ëıĻìķĪ": 3879,
      "Ġìķ½ê³¼": 3880,
      "ëĭ¤ë©°": 3881,
      "ì¡°ì§ģ": 3882,
      "Ġ500": 3883,
      "45": 3884,
      "Ġê¸°ë¶Ħ": 3885,
      "ħëĭĪëĭ¤": 3886,
      "Ġë²¤": 3887,
      "ëĿ¼ìĬ¤": 3888,
      "ë·Ķ": 3889,
      "48": 3890,
      "Ġìĺ¨ëĿ¼ìĿ¸": 3891,
      "ë¯¸êµŃ": 3892,
      "ĠìķĦíĶĦ": 3893,
      "Ġê°Ģìŀħ": 3894,
      "Ġëĭ¤ë£¨": 3895,
      "ë¡ľìĦľìĿĺ": 3896,
      "ë¬´ë¦¬": 3897,
      "êµ¬ì¡°": 3898,
      "ëŁŃ": 3899,
      "Ġê½¤": 3900,
      "oun": 3901,
      "ë®¤": 3902,
      "ìĭ¬íŀĪ": 3903,
      "Ġê°ľìĦ¤": 3904,
      "ìĥģíĥľ": 3905,
      "ĠìłĢëħģ": 3906,
      "Ġêµ³": 3907,
      "ìĦľê´Ģ": 3908,
      "Ġìĭ¬ì§Ģìĸ´": 3909,
      "Ġë¶Ħë¦¬": 3910,
      "ê¹¨": 3911,
      "Ġê¸Ģë¡ľë²Į": 3912,
      "Ġìĺ¤ë¥´": 3913,
      "Ġë½ĳ": 3914,
      "ìĭľìĬ¤íħľ": 3915,
      "íķĻíļĮ": 3916,
      "Ġê³¤": 3917,
      "Ġ###": 3918,
      "ìĭłë¬¸": 3919,
      "Ġê²¨ìļ¸": 3920,
      "Ġê°Ĵ": 3921,
      "ĠìĪĺë§İ": 3922,
      "Ġë¯¸ë¦¬": 3923,
      "ë°©ìĨ¡": 3924,
      "íĹ¤": 3925,
      "Ġíŀ": 3926,
      "kr": 3927,
      "ìĹ°ê¸Ī": 3928,
      "Ġëį§": 3929,
      "ê²ģ": 3930,
      "ìĦ°": 3931,
      "ĠêµĲíļĮ": 3932,
      "ĠíıĲì§Ģ": 3933,
      "ê·¸ë£¹": 3934,
      "ĠìĤŃ": 3935,
      "êµ¬ìļĶ": 3936,
      "Ġë°ľíĸī": 3937,
      "Ġê±°ë¶Ģ": 3938,
      "ĠíĺĳìĿĺ": 3939,
      "ìĦłìĿĺ": 3940,
      "Ġê³µìłķ": 3941,
      "ost": 3942,
      "ĠìĿ´íĥĪ": 3943,
      "ë³´íĺ¸": 3944,
      "ran": 3945,
      "ĠíķŃê³µ": 3946,
      "Ġ65": 3947,
      "ë¦¬ìĺ¤": 3948,
      "ĠíĶĦë¡ľìłĿíĬ¸": 3949,
      "ack": 3950,
      "ë§ŀ": 3951,
      "amp": 3952,
      "Ġì»´íĵ¨íĦ°": 3953,
      "ĠìĤ´ìķĦ": 3954,
      "ĠìĨĮëĵĿ": 3955,
      "Ġë³µíķ©": 3956,
      "ë§Īëĭ¹": 3957,
      "ëį´": 3958,
      "Ġëĭ¨ëıħ": 3959,
      "ê´ĳìĹŃìĭľ": 3960,
      "ĠìłĦê°ľ": 3961,
      "ĠíĽĪëł¨": 3962,
      "ĠìķĦëıĻ": 3963,
      "ë©ĺ": 3964,
      "ìķĦëıĦ": 3965,
      "ĠíĺĪìķķ": 3966,
      "å¯": 3967,
      "Ġì¤ĳìĿ¸": 3968,
      "ìķĦì§Ģ": 3969,
      "ĠëĤ¨íİ¸": 3970,
      "ry": 3971,
      "Ġìľłì¹ĺ": 3972,
      "Ġìĸ´ëĸł": 3973,
      "ug": 3974,
      "ë¹Ļ": 3975,
      "Ġì´¬ìĺģ": 3976,
      "08": 3977,
      "Ġíİ¸ìĦ±": 3978,
      "ëĮ": 3979,
      "ê±°ëŀĺ": 3980,
      "Ġë£Į": 3981,
      "êµ¬ëĤĺ": 3982,
      "ĠìĭŃ": 3983,
      "ĠìĽĲìŀ¥": 3984,
      "ĠìĿ¸íķĺ": 3985,
      "ëĲ©ëĭĪëĭ¤": 3986,
      "Ġë¡ľë§Ī": 3987,
      "ë¥´íģ¬": 3988,
      "ì´ĪìĿĺ": 3989,
      "iz": 3990,
      "Ġìłľëª©": 3991,
      "Ġíķ¨ìľł": 3992,
      "ëįĶëĿ¼": 3993,
      "ë£ĮìĿĺ": 3994,
      "Ġê²½íĸ¥": 3995,
      "ĠëıĻìĿĺ": 3996,
      "Ġìĭłì²´": 3997,
      "ë¥´ë°Ķ": 3998,
      "íĸĪìľ¼ëĤĺ": 3999,
      "Ġì§ĢíĤ¤": 4000,
      "ëĭī": 4001,
      "49": 4002,
      "ìĤ°ìĿĺ": 4003,
      "ĠìĹ°ê³Ħ": 4004,
      "Ġê²°íķ©": 4005,
      "ĠëĮĢì±ħ": 4006,
      "ie": 4007,
      "ìĿ¼ê¹Į": 4008,
      "ure": 4009,
      "Ġíĸ¥íĽĦ": 4010,
      "ĠëŃĶ": 4011,
      "Ġëĭµë³Ģ": 4012,
      "Ġë°°ì¹ĺ": 4013,
      "ì¹ĺìĿĺ": 4014,
      "ĠìļĶìĸĳ": 4015,
      "ìŀ¬ìĿ¸": 4016,
      "ëķ": 4017,
      "ĠìĺĪì¸¡": 4018,
      "ĠíĶ¼íķĺ": 4019,
      "Ġìĺ¤ëŀľ": 4020,
      "êµ¬ìĿĺ": 4021,
      "ĠìķĮë¦¬": 4022,
      "ĠíĨµíķ´ìĦľ": 4023,
      "rou": 4024,
      "ëĺĲíķľ": 4025,
      "Ġì²ĺë²Į": 4026,
      "ë§ĪìĿĦ": 4027,
      "Ġê³łëł¹ìŀĲ": 4028,
      "Ġì£¼ë¬¸": 4029,
      "Ġìļ´ìłĦ": 4030,
      "Ġì¹Ń": 4031,
      "100": 4032,
      "ìĤ¬ìļ©": 4033,
      "Ġë§¤ì¶ľ": 4034,
      "ëĤ¨ëıĦ": 4035,
      "ĠìĽĶëĵľ": 4036,
      "ë£¬": 4037,
      "ìĿ´ìĤ¬": 4038,
      "ĠêµŃê¸°": 4039,
      "ìħĢ": 4040,
      "êµĲíĨµ": 4041,
      "Ġ##%),": 4042,
      "Ġch": 4043,
      "ë¡±": 4044,
      "ĠëĤ´ë¦¬": 4045,
      "05": 4046,
      "Ġìŀ¬íĮĲ": 4047,
      "Ġï½": 4048,
      "ĠíĨłì§Ģ": 4049,
      "ê±°ëĵł": 4050,
      "ëĤĺìļĶ": 4051,
      "ĠíĿ¡ìĪĺ": 4052,
      "íĻĢ": 4053,
      "age": 4054,
      "Ġê¶Įëł¥": 4055,
      "ĠìĹ°ê¸Ī": 4056,
      "Ġë¶Īíİ¸": 4057,
      "ĠíĺĲìĿĺ": 4058,
      "âĢĺ": 4059,
      "ĠCYP": 4060,
      "Ġíı¬ê¸°": 4061,
      "Ġë¦°": 4062,
      "ĠìĿ´ëĤ´": 4063,
      "ì§ĢëĤľ": 4064,
      "å°": 4065,
      "36": 4066,
      "ëł¤ìĽĢ": 4067,
      "ember": 4068,
      "ĠëĶĶì§ĢíĦ¸": 4069,
      "Ġë¶ĢëıĻìĤ°": 4070,
      "Ġë¶ĪëŁ¬": 4071,
      "ëŀĦ": 4072,
      "Ġê°ĸì¶Ķ": 4073,
      "ì§ĪìĿĺ": 4074,
      "cm": 4075,
      "ĠìĿĺìĭ¬": 4076,
      "ĠëıħìŀĲ": 4077,
      "éģ": 4078,
      "ìķĬ": 4079,
      "ì¤ĺ": 4080,
      "ĠAl": 4081,
      "ĠìķĮëł¤ì¡Į": 4082,
      "Ġì¹ł": 4083,
      "ĠìŀĬ": 4084,
      "ëľ»": 4085,
      "ë¶ĦìĿĺ": 4086,
      "íķ´ì¡Į": 4087,
      "Ġê¸°ìĽĲ": 4088,
      "ìĦ¸íı¬": 4089,
      "ĠìĦ±ìłģ": 4090,
      "ìĹĲê²ĮìĦľ": 4091,
      "ĠTh": 4092,
      "Ġê³¼ë¯¼": 4093,
      "ĠìĻ¸êµŃìĿ¸": 4094,
      "Ġëĵ±ê³¼": 4095,
      "Ġse": 4096,
      "ĠëĮĢíĺķ": 4097,
      "Ġê±·": 4098,
      "Ġì¡±": 4099,
      "ĠíĨµì¦Ŀ": 4100,
      "09": 4101,
      "íı¬ë¥´": 4102,
      "Ġë©ĭ": 4103,
      "ë°ľìłĦ": 4104,
      "ĠìĺĢ": 4105,
      "ĠíĹĪê°Ģ": 4106,
      "ial": 4107,
      "Ġì·¨ìĹħ": 4108,
      "ìĸ´ìł¸": 4109,
      "75": 4110,
      "Ġìĺģìĸĳ": 4111,
      "Ġë¶ĢìĿ¸": 4112,
      "Ġì»¤íĶ¼": 4113,
      "Ġì¶ľíĺĪ": 4114,
      "ìĭ¬ìĿĺ": 4115,
      "Ġëĭ¤ë¦¬": 4116,
      "Ġì²´ê²°": 4117,
      "ë²ĶìľĦ": 4118,
      "ĠìĿ´ê²Į": 4119,
      "ëĵľëŁ¬": 4120,
      "Ġêµ¬ìŀħ": 4121,
      "Ġìľłíļ¨": 4122,
      "íĿĲ": 4123,
      "Ġìļ©ê¸°": 4124,
      "!!": 4125,
      "ĠíĶ¼íķ´ìŀĲ": 4126,
      "Ġë§Īìĭľ": 4127,
      "Ġë®¤": 4128,
      "ĠìŀĦê¸Ī": 4129,
      "Ġìķ½ìĨį": 4130,
      "ĠíĻĶìŀ¥": 4131,
      "Ġë§¤ëħĦ": 4132,
      "ë²¤íĬ¸": 4133,
      "ĠíĹĪìļ©": 4134,
      "ĠìĹ°ê´Ģ": 4135,
      "Ġì³Ĳ": 4136,
      "ĠíĥľìķĦ": 4137,
      "ìĻĢëĮĢ": 4138,
      "Ġëĭ¤ê°Ģ": 4139,
      "Ġì¶ľë°ľ": 4140,
      "Ġëªħì¹Ń": 4141,
      "Ġë¶Ģíĥģ": 4142,
      "ë¡ľëĤĺ": 4143,
      "ëĭ¤ìĿĮ": 4144,
      "ê³łëıĦ": 4145,
      "ìºĲ": 4146,
      "íĶĦëĿ¼": 4147,
      "ìĤ¬ê³ł": 4148,
      "ĠìķĦëĭĻ": 4149,
      "íĬ¸ìĽĮíģ¬": 4150,
      "Ġìĭ¤ì²ľ": 4151,
      "ëŃ": 4152,
      "ìĬ¤íħĮë¡ľìĿ´ëĵľ": 4153,
      "íģĲ": 4154,
      "Ġë¹¨ë¦¬": 4155,
      "Ġê²½ìĥģ": 4156,
      "ëļ": 4157,
      "ey": 4158,
      "ëĤĻ": 4159,
      "ĠìķĦìĭľìķĦ": 4160,
      "Ġìĭ¤ì§Ī": 4161,
      "pp": 4162,
      "Ġì¦īìĭľ": 4163,
      "Ġë¬¸ìĦľ": 4164,
      "TV": 4165,
      "ĠìĸĳìĦ±": 4166,
      "ìĦ¸ìĿĺ": 4167,
      "ê·¸ëŁ¬ëĤĺ": 4168,
      "Ġë³´ìĪĺ": 4169,
      "êº¼": 4170,
      "ì½©": 4171,
      "ĠíıīìĨĮ": 4172,
      "ê³łê¸°": 4173,
      "Ġë¯¸ìĪł": 4174,
      "Ġì°¨ë³Ħ": 4175,
      "¤ë²Ħ": 4176,
      "ìĨĮëĵĿ": 4177,
      "éĩ": 4178,
      "Ġìļ´ìļ©": 4179,
      "Ġì²ĺë°©": 4180,
      "ê³łìĦľ": 4181,
      "Ġare": 4182,
      "ĠìĭĿìĤ¬": 4183,
      "ëħ¸ëıĻ": 4184,
      "co": 4185,
      "íĥĳ": 4186,
      "ê³Ħìķ½": 4187,
      "ìĥ¤": 4188,
      "Ġì§ĢëĤ´": 4189,
      "ì¼ĢíĮħ": 4190,
      "ĠíĹ¬": 4191,
      "ìłķìĥģ": 4192,
      "ge": 4193,
      "ìĹĲëıĦ": 4194,
      "ik": 4195,
      "ĠìŀĲë³¸": 4196,
      "Ġë¹łìł¸": 4197,
      "ĠìĿĢíĸī": 4198,
      "íĴĪìĿĺ": 4199,
      "Ġíķĺì§Ģë§Į": 4200,
      "ame": 4201,
      "ĠìĤ¬ìŀ¥": 4202,
      "ìĬĺ": 4203,
      "Ġë¸ĮëĿ¼": 4204,
      "Ġê²½ê³Ħ": 4205,
      "íķľíİ¸": 4206,
      "ĠíķŃëª©": 4207,
      "ëķĮë¡ľ": 4208,
      "Ġë¦¼": 4209,
      "éĻ": 4210,
      "íı¼": 4211,
      "êµĲìĤ¬": 4212,
      "Ġëį°ë·Ķ": 4213,
      "ë¦¬íĬ¸": 4214,
      "ĠìĽ¹": 4215,
      "ëĪĪ": 4216,
      "Ġê°ķìĿĺ": 4217,
      "ĠëıĻë°ĺ": 4218,
      "ĠìĹ°ëł¹": 4219,
      "ĠìĭľíĮĲ": 4220,
      "198": 4221,
      "ĠìłĲìłĲ": 4222,
      "ëŀĢëĭ¤": 4223,
      "Ġìłľìłķ": 4224,
      "ê¾": 4225,
      "ë°ĺëıĦ": 4226,
      "ated": 4227,
      "IN": 4228,
      "ĠíĨłë¡ł": 4229,
      "ĠìĹ´ìĭ¬íŀĪ": 4230,
      "Ġìŀłìĭľ": 4231,
      "Ġ37": 4232,
      "íķĺëĤĺ": 4233,
      "Ġì¤ĳìĨĮ": 4234,
      "ĠìĺĪë¹Ħ": 4235,
      "ĠìľĦíĺĳ": 4236,
      "ĠìľĦë°ĺ": 4237,
      "ê³µìĽĲ": 4238,
      "ĠëĪĦêµ°": 4239,
      "ëĭ¤ëĭĪ": 4240,
      "Ġíİ¸ì§ĳ": 4241,
      "ĠìĪĺìļĶ": 4242,
      "ĠíĻķë¦½": 4243,
      "Ġëĭ¬ëŁ¬": 4244,
      "Ġëĸ¨ìĸ´ì§Ģ": 4245,
      "Ġëįľ": 4246,
      "Ġ##ï¼İ": 4247,
      "Ġìĭľì²Ń": 4248,
      "ĠìķłëĭĪ": 4249,
      "Ġyou": 4250,
      "Ġë°ķìĤ¬": 4251,
      "Ġ1999": 4252,
      "Ġê°ķìłľ": 4253,
      "ĠíķĦìĪĺ": 4254,
      "ì¡°ìłķ": 4255,
      "Ġì¡°íķ©": 4256,
      "com": 4257,
      "ĠìĦ¸ëł¥": 4258,
      "Ġëª½": 4259,
      "ì£¼íĥĿ": 4260,
      "ass": 4261,
      "ĠíĦ¸": 4262,
      "Ġë°ĶëĿ¼ë³´": 4263,
      "ĠìĿ¸ì§Ģ": 4264,
      "Ġì£¼ìĤ¬": 4265,
      "ìłĦìĿĺ": 4266,
      "íĺĦìŀ¬": 4267,
      "Ġê°ĳìŀĲê¸°": 4268,
      "ë¬¼ì§Ī": 4269,
      "Ġìłķì²´": 4270,
      "ìĤ¬ìĿ´": 4271,
      "Ġê³¼ëŁī": 4272,
      "ĠëĤĺìķĦê°Ģ": 4273,
      "Ġìļ°ìļ¸": 4274,
      "ĠíĽĦë°ĺ": 4275,
      "ĠìłľìĿ¼": 4276,
      "Ġê³ĦìĤ°": 4277,
      "íĺĳëł¥": 4278,
      "ĠíĮĮê´´": 4279,
      "Ġëĭ¨ì§Ģ": 4280,
      "å¤§": 4281,
      "ĠëĤĺì¤ĳ": 4282,
      "Ġê´ľì°®": 4283,
      "ê³µëĭ¨": 4284,
      "Ġëłĩ": 4285,
      "ĠìĹ¬ëŁ¬ë¶Ħ": 4286,
      "ĠíĺĪì¤ĳ": 4287,
      "Ġle": 4288,
      "Ġ1990": 4289,
      "âĳ": 4290,
      "ĠìŀĲê·¹": 4291,
      "Ġê°ķíķĺ": 4292,
      "ë³´ìĿ´": 4293,
      "Ġê°ľë³Ħ": 4294,
      "Ġê°ĢëĵĿ": 4295,
      "31": 4296,
      "Ġ##...": 4297,
      "ĠìŀĲëħĢ": 4298,
      "ĠìķĦëĭĲ": 4299,
      "mm": 4300,
      "ì¡°ìĦł": 4301,
      "Ġì£¼ê¸°": 4302,
      "ĠìĦłìĸ¸": 4303,
      "500": 4304,
      "Ġë¹Ħì¤ĳ": 4305,
      "Ġë¬¼ê±´": 4306,
      "Ġê³¼ìłľ": 4307,
      "íķ´ìłľ": 4308,
      "Ġê¸°ìļ¸": 4309,
      "Ġê°Ģê¹Įìļ´": 4310,
      "Ġê°ľíĺģ": 4311,
      "Ġë§ģ": 4312,
      "æŃ": 4313,
      "ĠìĤ¬ìķĪ": 4314,
      "æĺ": 4315,
      "ë¶ģëıĦ": 4316,
      "ĠíĺľíĥĿ": 4317,
      "íĬ¸ë¦¬": 4318,
      "Ġë¹Ħíĸī": 4319,
      "te": 4320,
      "ĠìĨĲìĭ¤": 4321,
      "ST": 4322,
      "ìľĦìĿĺ": 4323,
      "ĠìķĦëĤ´": 4324,
      "Ġë¬´ëĮĢ": 4325,
      "ë¹Į": 4326,
      "Ġìĭ¤íĸī": 4327,
      "ĠêµĲê³¼": 4328,
      "Ġform": 4329,
      "Ġë°©ìĸ´": 4330,
      "ĠìĿ´ìĸ´ì§Ģ": 4331,
      "ëĩĮ": 4332,
      "ë¹ĦìķĦ": 4333,
      "íĥľìĿĺ": 4334,
      "Ġ##~~": 4335,
      "ì¹´ëĵľ": 4336,
      "íĽĦìĿĺ": 4337,
      "Ġë¬¼ì§Ī": 4338,
      "ĠìľĦìĽĲìŀ¥": 4339,
      "ĠìĿ¸ëł¥": 4340,
      "ëĤ¸ëĭ¤": 4341,
      "Ġ=>": 4342,
      "ìĿ¼ë³¸": 4343,
      "ĠëķĮëķĮë¡ľ": 4344,
      "ëį¤": 4345,
      "Ġì²´ìłľ": 4346,
      "ĠìķĪìłĦìĦ±": 4347,
      "Ġëªĩëªĩ": 4348,
      "ĠìľłíĨµ": 4349,
      "Ġë²Ĺìĸ´ëĤĺ": 4350,
      "ĠìĿ¸ê¶Į": 4351,
      "Ģëĵľ": 4352,
      "ìĬĲ": 4353,
      "ĠëĤ´ëħĦ": 4354,
      "ë°į": 4355,
      "ì¾Į": 4356,
      "ìĸĳìĿĺ": 4357,
      "Ġìļ´íĸī": 4358,
      "Ġì¶Ķêµ¬": 4359,
      "ì²ĺë¦¬": 4360,
      "Ġêµī": 4361,
      "Ġì¿": 4362,
      "Ġìŀ¬ìĤ°": 4363,
      "ê±°ìļ´": 4364,
      "Ġë©¤ë²Ħ": 4365,
      "Ġì°¨ë¡Ģ": 4366,
      "Ġëħ¸ìĦł": 4367,
      "ì§ĢìĤ¬": 4368,
      "Ġë°ĶëŀĮì§ģ": 4369,
      "eam": 4370,
      "ĠìĤ¬ìľł": 4371,
      "Ġë°°ìłľ": 4372,
      "ìĤ¬ë¡Ģ": 4373,
      "Ġì¤ĳëĮĢ": 4374,
      "Ġì²łëıĦ": 4375,
      "Ġëĳĺì§¸": 4376,
      "Ġë¬¸ìłľìłĲ": 4377,
      "Ġë°Ķê¿": 4378,
      "ìĤ¬ë¬´": 4379,
      "ĠìĦłì¶ľ": 4380,
      "Ġì²´ì¤ĳ": 4381,
      "ìĦ¬": 4382,
      "Ġìļ©ìĸ´": 4383,
      "Ġë¥¸": 4384,
      "Ġë²ĪìĹŃ": 4385,
      "Ġex": 4386,
      "==": 4387,
      "ĠìĻĦë£Į": 4388,
      "ĠìĿ´ìļ©íķľ": 4389,
      "---": 4390,
      "ë§ĪìĿ´": 4391,
      "ì¿Ħ": 4392,
      "ĠíĺķìĤ¬": 4393,
      "ì£¼ë¯¼": 4394,
      "ĠëıĻë£Į": 4395,
      "37": 4396,
      "Ġ39": 4397,
      "Ġì°¨ëĭ¨": 4398,
      "32": 4399,
      "ice": 4400,
      "ĠíĻľìķ½": 4401,
      "Ġëł¥": 4402,
      "ê³łìļĶ": 4403,
      "ĠêµŃë¦½": 4404,
      "ĠìĮį": 4405,
      "íĨ¨": 4406,
      "ìĬ¤ì½Ķ": 4407,
      "Ġìĥģìĥģ": 4408,
      "ions": 4409,
      "íļĮëĭ´": 4410,
      "Ġê¸Īìķ¡": 4411,
      "Ġíİ¸ìĿĺ": 4412,
      "ë¥´íĬ¸": 4413,
      "Ġìķ¨ë²Ķ": 4414,
      "ìŀī": 4415,
      "FA": 4416,
      "ðŁ": 4417,
      "Ġì±Ļ": 4418,
      "ĠìĦłë°ľ": 4419,
      "ish": 4420,
      "Ġor": 4421,
      "ĠìĤ¬ìĿ´íĬ¸": 4422,
      "Ġíĺĳìĥģ": 4423,
      "Ġì´Īê³¼": 4424,
      "Ġ1998": 4425,
      "ĠìĿ¸ê³µ": 4426,
      "ì¢ĭ": 4427,
      "Ġë§Īë¬´ë¦¬": 4428,
      "Ġ48": 4429,
      "38": 4430,
      "Ġë§ĪìĿ´": 4431,
      "Ġì·¨ì§Ģ": 4432,
      "Ġìŀ¥ë¹Ħ": 4433,
      "íĶĦë¡ľê·¸ëŀ¨": 4434,
      "ĠëĤĺìĺ¨ëĭ¤": 4435,
      "ê²½ì°°": 4436,
      "Ġì¶ľíĮĲ": 4437,
      "ĠìĿ´ë²¤íĬ¸": 4438,
      "Ġìĭ¤íĺĦ": 4439,
      "orm": 4440,
      "ĠìļĶë¦¬": 4441,
      "02": 4442,
      "ĠìķĻ": 4443,
      "ĠìĥĿê¸´": 4444,
      "ĠëıĦìłĦ": 4445,
      "ì»·": 4446,
      "Ġìĺ¬ëł¤": 4447,
      "Ġì²ŃìĻĢëĮĢ": 4448,
      "Ġëĭ¤ìĨĮ": 4449,
      "ìłľìķ½": 4450,
      "Ġê²°ë¡ł": 4451,
      "Ġ##',": 4452,
      "ign": 4453,
      "Ġìŀİ": 4454,
      "ê¾¼": 4455,
      "ä½": 4456,
      "ase": 4457,
      "Ġë³µìŀ¡": 4458,
      "ëĭ´íļĮ": 4459,
      "ach": 4460,
      "ĠíķĻìĪł": 4461,
      "ìĤ¬ì§Ħ": 4462,
      "ork": 4463,
      "ì¶¤": 4464,
      "46": 4465,
      "07": 4466,
      "Ġë°©ì§Ģ": 4467,
      "ĠëĶ°ë¡ľ": 4468,
      "pr": 4469,
      "ĠíĿī": 4470,
      "Ġì¹¸": 4471,
      "ob": 4472,
      "ìĸ´ìĿĺ": 4473,
      "ìĭŃìĭľìĺ¤": 4474,
      "ĠìķĮëł¤ì§Ħ": 4475,
      "39": 4476,
      "Ġìį": 4477,
      "Ġ##@": 4478,
      "êµĲìĿĺ": 4479,
      "Ġì»¬": 4480,
      "ĠíĿ°": 4481,
      "ìĺĪìĪł": 4482,
      "Ġíĥģ": 4483,
      "Ġëħ¼ë¬¸": 4484,
      "åĪ": 4485,
      "¼Ī": 4486,
      "Ġì¦Ī": 4487,
      "æĢ": 4488,
      "ood": 4489,
      "ĠíķĺìĿ´": 4490,
      "ëĭµëĭĪëĭ¤": 4491,
      "ëĬĶëĭ¤ëĬĶ": 4492,
      "ĠëıĦìĻĢ": 4493,
      "Ġìŀłìŀ¬": 4494,
      "Ġêµ¬ê°ķ": 4495,
      "ĠëĮĢìķĪ": 4496,
      "^^": 4497,
      "Ġun": 4498,
      "Ġê³µìŀ¥": 4499,
      "ĠìłĦë©´": 4500,
      "ìĬ¤íĭ°": 4501,
      "ĠìĬ¹ìĿ¸": 4502,
      "íĺķíĥľ": 4503,
      "Ġë¦¬ëįĶ": 4504,
      "47": 4505,
      "íĬ¸ëĤ¨": 4506,
      "Ġì¶ľìłĦ": 4507,
      "ĠìĿ¼ìĭľ": 4508,
      "Ġìłģíķ©": 4509,
      "Ġë¬´ìĭľ": 4510,
      "ìĿĺìĿĺ": 4511,
      "hen": 4512,
      "Ġì·¨ê¸ī": 4513,
      "Ġëĵ±ê¸ī": 4514,
      "Ġì½ĺíħĲì¸ł": 4515,
      "01": 4516,
      "Ġê¸īìĹ¬": 4517,
      "ĠZ": 4518,
      "ë¦¬íı¬": 4519,
      "Ġìŀ¥ìłĲ": 4520,
      "ĠìĻ¸êµĲ": 4521,
      "ĠìłĦê³µ": 4522,
      "ìłľíĴĪ": 4523,
      "ìĤ¬ìĭ¤": 4524,
      "ìł¤": 4525,
      "ĠUn": 4526,
      "Ġë¯¸ë§Į": 4527,
      "ì§Ģê¸Ī": 4528,
      "ìĭľì§Ģ": 4529,
      "ĠëĪĦê°Ģ": 4530,
      "Ġì¸µ": 4531,
      "ĠíļįëĵĿ": 4532,
      "ĠìĦłë¬¼": 4533,
      "Ġì§Ģìĭľ": 4534,
      "Ġë¹łë¥¸": 4535,
      "Ġë¹ħ": 4536,
      "Ġê¹ĬìĿ´": 4537,
      "Ġê¾¸ì¤Ģ": 4538,
      "Ġê·¸ëł¤": 4539,
      "Ġë³Ħë¡ľ": 4540,
      "ì¹´ìĿ´": 4541,
      "ìĹ°êµ¬ìĨĮ": 4542,
      "Ġâĳł": 4543,
      "ĠìŀĦìĭľ": 4544,
      "Ġì²łìłĢ": 4545,
      "Ġêµ¬ê°Ħ": 4546,
      "ìĬ¤íĶ¼": 4547,
      "ìļ©ìĿĺ": 4548,
      "Ġê°ĢìĪĺ": 4549,
      "ĠìłĢìŀĳ": 4550,
      "ĠìłĦíĸĪ": 4551,
      "Ġì¤ĦìĿ´": 4552,
      "ë³¸ë¶Ģ": 4553,
      "ĠMar": 4554,
      "ë¡ľìį¨": 4555,
      "ìłľìłľ": 4556,
      "Ġì·¨ìŀĦ": 4557,
      "ê¸°íļį": 4558,
      "êµ¬ìĹŃ": 4559,
      "ĠìĿ´íĥĪë¦¬ìķĦ": 4560,
      "ìŀĲìĽĲ": 4561,
      "ê°Ģì¡±": 4562,
      "ë¹Ħìļ©": 4563,
      "Ġìĭłì¤ĳíŀĪ": 4564,
      "Ġë§Īì£¼": 4565,
      "ĠìĪĺë¡Ŀ": 4566,
      "Ġì§Īë³ĳ": 4567,
      "Ġëĸ¨": 4568,
      "ëłĪìķĦ": 4569,
      "Ġë²¨": 4570,
      "Ġë¬ĺìĤ¬": 4571,
      "ĠìłĲì°¨": 4572,
      "å±±": 4573,
      "Ġìħĭ": 4574,
      "ĠìĥĿì¡´": 4575,
      "ê°ģìĿĺ": 4576,
      "ìĪ¨": 4577,
      "Ġëį§ë¶Ļ": 4578,
      "Ġì´ĿìĦł": 4579,
      "ww": 4580,
      "ĠíĺĦì§Ģ": 4581,
      "ĠìĹ°ì£¼": 4582,
      "Ġê³¼ìŀ¥": 4583,
      "ond": 4584,
      "ĠìĹ°íķ©": 4585,
      "ĠìĻ¼": 4586,
      "ë²ĪìĹŃ": 4587,
      "ĠìķŀëĳĲ": 4588,
      "ĠìĿĳëĭµ": 4589,
      "Ġíļ¨ëĬ¥": 4590,
      "íķľëį°": 4591,
      "ĠëĤŃ": 4592,
      "Ġìľµ": 4593,
      "Ġì²łíķĻ": 4594,
      "Ġìłķê¶Į": 4595,
      "ê¸°êµ¬": 4596,
      "Ġìį¼": 4597,
      "ens": 4598,
      "ĠìĦ¸ìĽĮ": 4599,
      "ëģĦ": 4600,
      "ÃĹ": 4601,
      "Ġë°ľì§Ħ": 4602,
      "Ġ400": 4603,
      "ĠìĿ¸ê³¼": 4604,
      "06": 4605,
      "ëĵŃ": 4606,
      "Ġê¹Ģìłķ": 4607,
      "ĠíĪ¬ìŀħ": 4608,
      "Ġë¬¶": 4609,
      "ĠìĨĮìĭĿ": 4610,
      "íĨµìĭł": 4611,
      "ĠìĪĺíķĻ": 4612,
      "Ġì±Ħìļ©": 4613,
      "Ġê³µê°Ĳ": 4614,
      "ë´ĩ": 4615,
      "ĠHe": 4616,
      "Ġëĵľë¦¬": 4617,
      "Ġì¹´íİĺ": 4618,
      "ĠìĨĲìĥģ": 4619,
      "Ġâĳ¡": 4620,
      "ĠíĤ¤ìļ°": 4621,
      "ĠìĬ¤íħĮ": 4622,
      "ĠìĿ´íķĺ": 4623,
      "Ġëĭ¹ëĩ¨ë³ĳ": 4624,
      "Ġë§ŀì¶Ķ": 4625,
      "ë¡ľëĶĶ": 4626,
      "Ġë§ŀì¶°": 4627,
      "ave": 4628,
      "ëĴ": 4629,
      "Ġìŀħë²ķ": 4630,
      "ĠíĺĪê´Ģ": 4631,
      "ìĸ´ëĤł": 4632,
      "ê·¸ë¦¬ê³ł": 4633,
      "per": 4634,
      "ĠíĴĪì§Ī": 4635,
      "ë§ĪìĿĺ": 4636,
      "Ġë¹ĪëıĦ": 4637,
      "íĻĶêµŃ": 4638,
      "ĠìĿ´ë¥¸": 4639,
      "Ġë²łìĿ´": 4640,
      "Ġê±°ëĮĢ": 4641,
      "ace": 4642,
      "Ġx": 4643,
      "ìĿĺìĭĿ": 4644,
      "ence": 4645,
      "Ġê²Ģì¦Ŀ": 4646,
      "Ġë¶Ģë¬¸": 4647,
      "ìĿ¼ìŀĲ": 4648,
      "ì²´ìľ¡": 4649,
      "ìĮ": 4650,
      "ëĭ¤ìĭľ": 4651,
      "ound": 4652,
      "Ġëįķë¶Ħ": 4653,
      "Ġëĭ¬ëł¤": 4654,
      "ĠìĪĺì§ĳ": 4655,
      "Ġíļ¡": 4656,
      "ìĭ¼": 4657,
      "ë©ĶëĿ¼": 4658,
      "Ġìĥģì²ĺ": 4659,
      "ìĹŃìĤ¬": 4660,
      "ë¦¬ì§Ģ": 4661,
      "ĠëĮĢê¸°": 4662,
      "ĠâĹ": 4663,
      "ĠìłĢíķĺ": 4664,
      "ê²°ìłķ": 4665,
      "Ġì£ł": 4666,
      "ĠìĬ¤íİĺìĿ¸": 4667,
      "ìĹ°íķ©": 4668,
      "Ġê°Ĳê°ģ": 4669,
      "ĠìľłìķĦ": 4670,
      "Ġëª¬": 4671,
      "ê·¸ëŁ°": 4672,
      "Ġìĺ¤ëĬĺëĤł": 4673,
      "Ġu": 4674,
      "Ġê³ĦìĹ´": 4675,
      "ĠìĥĿë¬¼": 4676,
      "¸Ĳ": 4677,
      "hy": 4678,
      "ĠìĹŃëŁī": 4679,
      "íļĮìĿĺìĽĲ": 4680,
      "Ġë²ķìĽĲ": 4681,
      "Ġë¶Īê°Ģ": 4682,
      "ìĤ¬ê±´": 4683,
      "ë©ĶìĿ´ìħĺ": 4684,
      "ĠìĦ¸íı¬": 4685,
      "ĠìµľìłĢ": 4686,
      "ëŀ¬": 4687,
      "Ġëĭ¿": 4688,
      "ìĹŃìĿĺ": 4689,
      "ì¡°íķ©": 4690,
      "ĠìĨĮíĨµ": 4691,
      "ĠìĬ¤íĨłë¦¬": 4692,
      "ĠëĤ¸": 4693,
      "ĠíĿĲë¦Ħ": 4694,
      "Ġ1997": 4695,
      "ĠìłľêµŃ": 4696,
      "NS": 4697,
      "ë°©ìĭĿ": 4698,
      "ĠëĦ¤íĬ¸ìĽĮíģ¬": 4699,
      "ĠíĻĪíİĺìĿ´ì§Ģ": 4700,
      "íĭ¸": 4701,
      "Ġêµ°ëĮĢ": 4702,
      "Ġìŀħì¦Ŀ": 4703,
      "ìĻľ": 4704,
      "ĠìĦ¸ê¸Ī": 4705,
      "Ġì¢ģ": 4706,
      "ĠìĪĺëĭ¨": 4707,
      "ĠìħĪ": 4708,
      "Ġë¬´ë¦¬": 4709,
      "ical": 4710,
      "ĠìĿ¸íĦ°ë·°": 4711,
      "ì²ľë§Į": 4712,
      "Ġ##ï½£": 4713,
      "ĠìĹ´ë¦¬": 4714,
      "ìļ´ìĺģ": 4715,
      "ìĥīìĿĺ": 4716,
      "ëŀĢíĬ¸": 4717,
      "ason": 4718,
      "ë¦ĩ": 4719,
      "ê¹Ŀ": 4720,
      "ĠìĤ¬ìłķ": 4721,
      "Ġë§Įíķľ": 4722,
      "ĠFC": 4723,
      "ĠíĹĺ": 4724,
      "ìĿĦì§Ģ": 4725,
      "ê±°ëĵłìļĶ": 4726,
      "Ġ46": 4727,
      "Ġìłķíķĺ": 4728,
      "Ġ75": 4729,
      "Ġê³łìłķ": 4730,
      "íĺķìĿĺ": 4731,
      "34": 4732,
      "íķ´ìļĶ": 4733,
      "ĠíĪ¬íĳľ": 4734,
      "Ġêµīìŀ¥": 4735,
      "Ġì²ŃìĨĮ": 4736,
      "ì¤ĳìķĻ": 4737,
      "Ġëħ¼ë¦¬": 4738,
      "Ġíķľìłķ": 4739,
      "ĠëıħìĦ±": 4740,
      "ëĤĺë§Ī": 4741,
      "íļ¨ìĨĮ": 4742,
      "ĠìĦľìļ¸ìĭľ": 4743,
      "Ġë¶Ģìĥģ": 4744,
      "Ġìĭłë¬¸": 4745,
      "ula": 4746,
      "Ġê°ķëĤ¨": 4747,
      "Ġë§Īì¼ĢíĮħ": 4748,
      "Ġâĳ¢": 4749,
      "ĠìĿĺì¡´": 4750,
      "Ġíŀĺëĵł": 4751,
      "Ġíİ¼ì³Ĳ": 4752,
      "ìľłë¶Ģ": 4753,
      "ĠìĥĪë¡Ń": 4754,
      "Ġj": 4755,
      "ĠìĭĿë¬¼": 4756,
      "Ġë¶Ģìŀĳìļ©": 4757,
      "ìĺĪìļĶ": 4758,
      "Ġë²Ħë¦¬": 4759,
      "Ġê¸°ëĭ¤ë¦¬": 4760,
      "å¾": 4761,
      "Ġë¹Ħë°Ģ": 4762,
      "Ġëªħëł¹": 4763,
      "Ġê»ĺ": 4764,
      "ĠëĨįìĹħ": 4765,
      "Ġì§ģë¬´": 4766,
      "ĠRe": 4767,
      "ĠìıŁ": 4768,
      "Ġìŀī": 4769,
      "Ġíĥľìĸĳ": 4770,
      "ĠìĬĪíį¼": 4771,
      "Ġë°´": 4772,
      "ĠìĦ¤ìĤ¬": 4773,
      "ëĮĢì±ħ": 4774,
      "ĠìĿ´íĸī": 4775,
      "Ġëĭ¨ìľĦ": 4776,
      "ĠëĤ¨ìª½": 4777,
      "ëįľ": 4778,
      "Ġë³¸ëĭ¤": 4779,
      "ç¾": 4780,
      "è¡": 4781,
      "ìĺĢìĿĦ": 4782,
      "oin": 4783,
      "ìħľ": 4784,
      "ì½¤": 4785,
      "ĠìłģìĿĳ": 4786,
      "Ġì£¼ê´Ģ": 4787,
      "Ġë¬´ë£Į": 4788,
      "Ġì£¼ì²´": 4789,
      "ë¬¼ê´Ģ": 4790,
      "ê´Ģëł¨": 4791,
      "day": 4792,
      "Ġë§ŀìĿ´": 4793,
      "ĠëŀĢ": 4794,
      "Ġë§¹": 4795,
      "ìŀ¥ê´Ģ": 4796,
      "Ġê³µê¸°": 4797,
      "ational": 4798,
      "Ġë°ĿíŀĪ": 4799,
      "Ġê·¹ë³µ": 4800,
      "ĠêµĲì²´": 4801,
      "ìķĹ": 4802,
      "Ġë§ĮìĦ±": 4803,
      "ĠìŀĲìľ¨": 4804,
      "Ġê²ģëĭĪëĭ¤": 4805,
      "ë¡¬": 4806,
      "ê³µíķŃ": 4807,
      "Ġhis": 4808,
      "99": 4809,
      "ĠëĮĢìĥģìŀĲ": 4810,
      "Ġê¶ģê¸Ī": 4811,
      "ĠìĬ¤íĬ¸ëłĪìĬ¤": 4812,
      "ê³µìłľ": 4813,
      "Ġê²½ëł¥": 4814,
      "Ġíķ©ë¦¬": 4815,
      "ĠìĿ¸ê·¼": 4816,
      "ëĨįëıĦ": 4817,
      "Ġë°ľìĸ¸": 4818,
      "Ġë¶ī": 4819,
      "ë¬¸ìĿĺ": 4820,
      "Ġì§ĢëĭĮ": 4821,
      "Ġë¿Įë¦¬": 4822,
      "ĠìĪ²": 4823,
      "ë¸Ĳ": 4824,
      "ĠíĻĢ": 4825,
      "ĠìĦŃì·¨": 4826,
      "her": 4827,
      "Ġì²«ì§¸": 4828,
      "ĠìĤ¬íĥľ": 4829,
      "Ġ1980": 4830,
      "ìŀĲë©´": 4831,
      "ëľ¨": 4832,
      "ĠíĶĦëłĪ": 4833,
      "Ġìł¸": 4834,
      "Ġìķ¤": 4835,
      "ĠìĹ°ê°Ħ": 4836,
      "Ġê°ķìĽĲ": 4837,
      "als": 4838,
      "Ġë¶Ģë¶Ģ": 4839,
      "ĠíĻľë°ľ": 4840,
      "ĠìĭĿíĴĪ": 4841,
      "ĠìĿ´ëŀĺ": 4842,
      "Ġì°½ìĹħ": 4843,
      "Ġìłķê·ľ": 4844,
      "ìĭ¬ìĤ¬": 4845,
      "ãħİãħİ": 4846,
      "ĠìĤ´ìķĦê°Ģ": 4847,
      "67": 4848,
      "ĠíĺĳíļĮ": 4849,
      "Ġê·¸ë¦°": 4850,
      "Ġê³µìĿµ": 4851,
      "ance": 4852,
      "ë³µì§Ģë¶Ģ": 4853,
      "Ġê¸īìĦ±": 4854,
      "55": 4855,
      "ru": 4856,
      "Ġíĥĵ": 4857,
      "ç¥": 4858,
      "ĠëħĢ": 4859,
      "Ġë¬µ": 4860,
      "Ġ1996": 4861,
      "Ġê¼½": 4862,
      "ĠëıĻê¸°": 4863,
      "Ġëļľ": 4864,
      "Ġìĭłê·ľ": 4865,
      "ë¡ľê·¸": 4866,
      "ĠìĿĺíĺ¹": 4867,
      "Ġëŀľ": 4868,
      "Ġë¬¸ìŀ¬ìĿ¸": 4869,
      "ĠëĿł": 4870,
      "ê°ĲìĤ¬": 4871,
      "Ġê·¼ë³¸": 4872,
      "Ġìłķë§¥": 4873,
      "Ġê²Įëĭ¤ê°Ģ": 4874,
      "Ġíģ¬ë¦¬ìĬ¤": 4875,
      "Ġì¡°ë¡Ģ": 4876,
      "æĪ": 4877,
      "Ġ1995": 4878,
      "åº": 4879,
      "Ġëĭ¹ìĹ°íŀĪ": 4880,
      "Ġìŀĳê³¡": 4881,
      "Ġê·¸ê³³": 4882,
      "Ġë°°ì¶ľ": 4883,
      "Ġì¹ĺë£Įìłľ": 4884,
      "ĠìľłìłĦ": 4885,
      "Ġë©´ìĹŃ": 4886,
      "ĠìħĢ": 4887,
      "ĠìĪ«": 4888,
      "ĠëĮĢëĭµ": 4889,
      "Ġíķ´ìĨĮ": 4890,
      "Ġì¶©ê²©": 4891,
      "Ġ42": 4892,
      "Ġ##âĢĺ": 4893,
      "ĠëĪĦêµ°ê°Ģ": 4894,
      "Ġ##<": 4895,
      "ìĺģìĥģ": 4896,
      "ìĪĺì¤Ģ": 4897,
      "DA": 4898,
      "ìłķì¹ĺ": 4899,
      "ĠêµŃíļĮìĿĺìĽĲ": 4900,
      "Ġê²Ģìĥī": 4901,
      "ose": 4902,
      "ĠíĨµìĭł": 4903,
      "ë¬µ": 4904,
      "ĠìķĦë¹ł": 4905,
      "ĠíĺĪì²Ń": 4906,
      "Ġìŀ¬ë£Į": 4907,
      "Ġë°©ì¹¨": 4908,
      "Ġì£¼ì°¨": 4909,
      "ĠìĿ´ìĻ¸": 4910,
      "ĠëıĻìĥĿ": 4911,
      "Ġíķľë°ĺëıĦ": 4912,
      "Ġì·¨ëĵĿ": 4913,
      "one": 4914,
      "ìĽ¨ìĸ´": 4915,
      "cid": 4916,
      "Ġ##âĢĻ(": 4917,
      "Ġë¬¸ìŀĲ": 4918,
      "Ġê·¸ë§Įíģ¼": 4919,
      "ĠëĿ¼ëĬĶ": 4920,
      "ime": 4921,
      "ĠìķĦë¦Ħëĭ¤ìļ´": 4922,
      "Ġìķ¼êµ¬": 4923,
      "ë»": 4924,
      "65": 4925,
      "Ġwere": 4926,
      "Ġì§ĢìľĦ": 4927,
      "ĠIT": 4928,
      "ĠíıīìĥĿ": 4929,
      "ĠìĦŀ": 4930,
      "ric": 4931,
      "Ġê¶¤": 4932,
      "Ġìĺ¬ëĿ¼ê°Ģ": 4933,
      "Ġê·¸ê²Į": 4934,
      "Ġë¯¸ìĦ¸": 4935,
      "ĠìĦ¸ëĮĢ": 4936,
      "ê°ĢëĿ½": 4937,
      "Ġë¬´ì¡°ê±´": 4938,
      "Ġì¤Ģëĭ¤": 4939,
      "ĠíĽĮ": 4940,
      "Ġìłľìłľ": 4941,
      "ĠìĻĦë²½": 4942,
      "ìĭĿíĴĪ": 4943,
      "ê°Ĳëıħ": 4944,
      "Ġêµ¬íķĺ": 4945,
      "Ġë©Ī": 4946,
      "Ġï½¢": 4947,
      "Ġìĺ¹": 4948,
      "ë¥´ê¸°": 4949,
      "ĠìķĦë¬´ë¦¬": 4950,
      "ĠìĻĦíĻĶ": 4951,
      "Ġì§ĢìŀĲ": 4952,
      "äºº": 4953,
      "íĺĶ": 4954,
      "Ġê·¸ìłĢ": 4955,
      "ìĤ¬ëŀĳ": 4956,
      "Ġë¶Ħíı¬": 4957,
      "44": 4958,
      "ĠìĦ¼íĦ°": 4959,
      "ì¤¬": 4960,
      "Ġì§Ģíľĺ": 4961,
      "ĠíĿĺëŁ¬": 4962,
      "íıŃëł¥": 4963,
      "ĠMBC": 4964,
      "Ġê·¼ëĮĢ": 4965,
      "pt": 4966,
      "Ġ##ãİ¡": 4967,
      "ëĭ¹ìĿĺ": 4968,
      "ë²Ħë¦°": 4969,
      "ì§ģìĽĲ": 4970,
      "ĠíķĻë¬¸": 4971,
      "ĠìħĶ": 4972,
      "Ġë§¤ëł¥": 4973,
      "ĠìŀĲëĿ¼": 4974,
      "Ġê³łëĵ±íķĻêµĲ": 4975,
      "Ġìĭ¬íĺĪ": 4976,
      "ëĭ¨ì§Ģ": 4977,
      "éĥ": 4978,
      "ì§Ģë¶Ģ": 4979,
      "ëŁ¼íĶĦ": 4980,
      "Ġìĸ´ì§Ģ": 4981,
      "Ġê´ĢìłĪ": 4982,
      "ëĤŃ": 4983,
      "ĠìĿ¼ìłľ": 4984,
      "Ġsh": 4985,
      "Ġë¦Ħ": 4986,
      "ì§ĦíĨµìłľ": 4987,
      "Ġì¢ħë£Į": 4988,
      "Ġëıķ": 4989,
      "íĢ´": 4990,
      "ory": 4991,
      "Ġ55": 4992,
      "Ġì´Īë°ĺ": 4993,
      "ĠìłĲìĪĺ": 4994,
      "ĠìĹ°ëĿ½": 4995,
      "ì¤ĳêµŃ": 4996,
      "Ġë§Īë²ķ": 4997,
      "Ġì½©": 4998,
      "ax": 4999,
      "ê¶": 5000,
      "êµŃìŀ¥": 5001,
      "Ġë¶ģìª½": 5002,
      "ĠëĿĦ": 5003,
      "ìľ¼ëĭĪê¹Į": 5004,
      "ĠìĹĦì²ŃëĤľ": 5005,
      "ë§ĪìłĢ": 5006,
      "Ġê°Ģì¡Į": 5007,
      "Ġëī´ìļķ": 5008,
      "Ġì±Ķ": 5009,
      "Ġê³łìĸĳ": 5010,
      "ìĨĮìĿĺ": 5011,
      "ĠìĻĢìĦľ": 5012,
      "ĠìķĦë¥´": 5013,
      "Ġêµ¬ìĨį": 5014,
      "Ġë²łíĬ¸ëĤ¨": 5015,
      "Ġì¦Ŀëªħ": 5016,
      "ê±´ìĦ¤": 5017,
      "ìĿ¸ê³¼": 5018,
      "ĠíĻĶíķĻ": 5019,
      "ĠìĿĺíļĮ": 5020,
      "íĮĮìĿ´": 5021,
      "ê²ĮìŀĦ": 5022,
      "Ġì²ŃìĽĲ": 5023,
      "ĠëĤ´ëĨĵ": 5024,
      "íĭ°ë¸Į": 5025,
      "ìļ¸ëŁ¬": 5026,
      "ĠêµĲë¥ĺ": 5027,
      "Ġì¡°ê°ģ": 5028,
      "ĠíĥĢìĿ¸": 5029,
      "ĠëĮĢíķĻêµĲ": 5030,
      "ĠìľĦë¡ľ": 5031,
      "ĠìĿ´ìļ©íķ´": 5032,
      "ome": 5033,
      "ĠìĨĮìĨ¡": 5034,
      "ìĦłìĪĺ": 5035,
      "Ġëĵ¤ìĸ´ìĺ¤": 5036,
      "ìķĦë²Ħì§Ģ": 5037,
      "Ġì¤ĳì¶Ķ": 5038,
      "Ġê³µíĨµ": 5039,
      "ëĤĺìĿ´": 5040,
      "ë²Ħëł¸": 5041,
      "å¹": 5042,
      "Ġë©´ìłģ": 5043,
      "Ġë³´ì¡´": 5044,
      "Ġë¡¯": 5045,
      "ê°Ģì¹ĺ": 5046,
      "ë¶Ħë¥ĺ": 5047,
      "ë°Ģë¦¬": 5048,
      "ìķĦëĭĪ": 5049,
      "Ġêµīìŀ¥íŀĪ": 5050,
      "Ġëŀ«": 5051,
      "Ġêµ¬íĨł": 5052,
      "ĠìłķìĦľ": 5053,
      "ĠìĦľë©´": 5054,
      "ìłĦìŁģ": 5055,
      "Ġê°Ģë¡ľ": 5056,
      "ĠìĨĲíķ´": 5057,
      "ĠíĮĮë¦¬": 5058,
      "04": 5059,
      "æ³": 5060,
      "Ġë©¸": 5061,
      "ìł¸ìĦľ": 5062,
      "ëıħêµĲ": 5063,
      "ĠìĿ¸ì¦Ŀ": 5064,
      "ĠìŀĲì¹ĺ": 5065,
      "ĠëĶ°ëľ»": 5066,
      "ĠìĭłìĦ¤": 5067,
      "ĠìĽĢì§ģìĿ´": 5068,
      "Ġê²½ê³ł": 5069,
      "ë¶Ģëª¨": 5070,
      "ìĹ¬ìŀĲ": 5071,
      "Ġë¬´ìĹŃ": 5072,
      "ĠëĦĲë¦¬": 5073,
      "íķĦìĪĺ": 5074,
      "ìĺĪìĤ°": 5075,
      "ëĭ¬ëŁ¬": 5076,
      "ë¯¼ìĿĺ": 5077,
      "ark": 5078,
      "ĠìłĢìŀ¥": 5079,
      "ìĭľìĬ¤": 5080,
      "Ġë°Ķëĭ¥": 5081,
      "Ġë¬¸ìŀ¥": 5082,
      "íĶĮëłĪìĿ´": 5083,
      "ìħĶìĦľ": 5084,
      "Ġë°Ķë¥´": 5085,
      "Ġê·¼ì²ĺ": 5086,
      "Ġë°ľìĤ¬": 5087,
      "Ġìľ¡ìĦ±": 5088,
      "Ġìłķë¹Ħ": 5089,
      "ê³µê°Ħ": 5090,
      "Ġì§Ģìĥģ": 5091,
      "ë°ĺê¸°": 5092,
      "ìĦ¸ìĿ´": 5093,
      "pl": 5094,
      "ĠìĿ´ì¤ĳ": 5095,
      "ĠìĿ¸ìĪĺ": 5096,
      "ĠëĤ¬": 5097,
      "ë¶ķ": 5098,
      "95": 5099,
      "Ġë¶Ģê³¼": 5100,
      "ĠìĺĪìłĦ": 5101,
      "ë¶Ħìķ¼": 5102,
      "2017": 5103,
      "ê°ĢìļĶ": 5104,
      "ĠìĿĺíķĻ": 5105,
      "êµŃìłľ": 5106,
      "ê³łëĵ±íķĻêµĲ": 5107,
      "ĠìĨĮìĹ¼": 5108,
      "ĠëĬĺìĸ´ëĤĺ": 5109,
      "Ġì°½ì¡°": 5110,
      "ĠíĨłëĮĢ": 5111,
      "Ġê°Ħëĭ´íļĮ": 5112,
      "cl": 5113,
      "å¸": 5114,
      "Ġëį®": 5115,
      "ĠìĤ¬ê³¼": 5116,
      "ind": 5117,
      "ĠíĬĢ": 5118,
      "ition": 5119,
      "61": 5120,
      "ĠìŀĲëŀĳ": 5121,
      "âħ": 5122,
      "æĹ": 5123,
      "ìķ¤": 5124,
      "Ġíİľ": 5125,
      "Ã©": 5126,
      "ì£¼ìĤ¬": 5127,
      "ĠìłĦëł¥": 5128,
      "ĠêµŃìłķ": 5129,
      "ĠíıŃëł¥": 5130,
      "tern": 5131,
      "ult": 5132,
      "ĠìŀĦëĮĢ": 5133,
      "out": 5134,
      "ìŀĲëĬĶ": 5135,
      "ous": 5136,
      "ìĿĺíĺĳ": 5137,
      "ĠìĿ¼ìĸ´ëĤľ": 5138,
      "ĠìĹ¬ê²¨": 5139,
      "03": 5140,
      "Ġíħį": 5141,
      "ĠìĿ¼ìľ¼íĤ¤": 5142,
      "ĠëĪĪë¬¼": 5143,
      "ĠëĮĢëĭ¨": 5144,
      "ĠìķłëĭĪë©ĶìĿ´ìħĺ": 5145,
      "ĠëĥĦ": 5146,
      "êµĲíļĮ": 5147,
      "78": 5148,
      "ë®¤ëĭĪ": 5149,
      "Ġì§ĢìłĲ": 5150,
      "ĠìĹ°ì¶ľ": 5151,
      "ä¸Ń": 5152,
      "ĠëıĦì¿Ħ": 5153,
      "Ġê·¸ëŁ¬ë¯Ģë¡ľ": 5154,
      "ëĦĺ": 5155,
      "Ġì§ĢëĭĪ": 5156,
      "Ġëĭ«": 5157,
      "Ġëª¨ë¥¸ëĭ¤": 5158,
      "fer": 5159,
      "Ġê³µíı¬": 5160,
      "ì²©": 5161,
      "Ġëĭ¨ìĪľíŀĪ": 5162,
      "Ġë§ĮíĻĶ": 5163,
      "68": 5164,
      "pe": 5165,
      "Ġìŀ¥ì¹ĺ": 5166,
      "Ġìĺ¬ëŀĲ": 5167,
      "ĠíĿ¥ë¯¸": 5168,
      "Ġë²ĦìłĦ": 5169,
      "enc": 5170,
      "Ġíĸ¥íķ´": 5171,
      "ë¯¸ì§Ģ": 5172,
      "ĠëĤ´ì§Ģ": 5173,
      "Ġìĭ¤ëł¥": 5174,
      "Ġíĺ¼ëŀĢ": 5175,
      "ĠëĨĢëĿ¼": 5176,
      "ë£©": 5177,
      "ëĮĢìłĦ": 5178,
      "íŀĲ": 5179,
      "Ġê·¸ë§Į": 5180,
      "Ġëħ¸ëıĻìŀĲ": 5181,
      "ë¹ĦìłĦ": 5182,
      "ì²´ìłľ": 5183,
      "ĠëĿ¼ê³ł": 5184,
      "Ġë§Īë¦¬": 5185,
      "Ġì°½ì¶ľ": 5186,
      "Ġì£¼ìľĦ": 5187,
      "ëĤĺëĭ¤": 5188,
      "ê¹Ĳ": 5189,
      "ê¸Īìľµ": 5190,
      "Ġíĥľìĸ´ëĤ¬": 5191,
      "ĠìĥĿê²¨": 5192,
      "ĠìĹ°ë°©": 5193,
      "Ġê°Ģê²Į": 5194,
      "ĵê¸Ģ": 5195,
      "Ġê¶Įíķľ": 5196,
      "Ġë©ĶìĿ´": 5197,
      "íķĻìĬµ": 5198,
      "Ġëĸ¡": 5199,
      "Ġìļ¸ìĤ°": 5200,
      "man": 5201,
      "ìĹ¬ìĦ±": 5202,
      "ê¸°ê¸°": 5203,
      "ìĽĮëĵľ": 5204,
      "ne": 5205,
      "Ġì·¨íķĺ": 5206,
      "mer": 5207,
      "ĠëıĦêµ¬": 5208,
      "ĠíħĲ": 5209,
      "ĠíĶĮëŀ«": 5210,
      "çİ": 5211,
      "ìĭľíĤ¨ëĭ¤": 5212,
      "Ġãħĭãħĭ": 5213,
      "ĠìķĮëłĪ": 5214,
      "Ġíģ´ëŀĺ": 5215,
      "ĠëĮĢìŀ¥": 5216,
      "ìŀĲëıĻ": 5217,
      "æĽ": 5218,
      "Ġë¹µ": 5219,
      "ë°ĺìĿĺ": 5220,
      "ĠëıĻìª½": 5221,
      "ìĪĺìĿµ": 5222,
      "ê²½ìĺģ": 5223,
      "ë¨¸ë¦¬": 5224,
      "ĠìĦ¸ìļ°": 5225,
      "Ġëĭ¨ìĿ¼": 5226,
      "Ġê³łëĮĢ": 5227,
      "Ġì¹ĺëªħ": 5228,
      "ĠìŀĳëħĦ": 5229,
      "ĠëĮĢìĦł": 5230,
      "Ġê³¼ìĹ°": 5231,
      "ìķĦìĭľìķĦ": 5232,
      "ĠíĬ¹íĹĪ": 5233,
      "ìĭľë¯¼": 5234,
      "íĬ¹ë³Ħìĭľ": 5235,
      "Ġëĭ¹íķĺ": 5236,
      "íĹĪê°Ģ": 5237,
      "Ġì¦Ĳê¸°": 5238,
      "Ġìļ©ë²ķ": 5239,
      "ìĬ¤íĨł": 5240,
      "aw": 5241,
      "Ġê°Ģêµ¬": 5242,
      "ĠìłĦìļ©": 5243,
      "ĠëªħìĺĪ": 5244,
      "CE": 5245,
      "ë°Ķë¡ľ": 5246,
      "ì§Ģêµ¬": 5247,
      "æĢ§": 5248,
      "ëª¨ìĿĺ": 5249,
      "ìŀĺ": 5250,
      "Ġì°°": 5251,
      "ëª©ìłģ": 5252,
      "ĠAn": 5253,
      "2019": 5254,
      "Ġë¯¼ìĽĲ": 5255,
      "è¨": 5256,
      "ĠíĿĶíŀĪ": 5257,
      "ìĿ¼ìĿĺ": 5258,
      "ìļ©íĪ¬": 5259,
      "Ġê³łê¸°": 5260,
      "Ġëª¨ìĹ¬": 5261,
      "éĽ": 5262,
      "ĠëıĦëįķ": 5263,
      "ë¯¼ì£¼ëĭ¹": 5264,
      "ont": 5265,
      "Ġíĳľê¸°": 5266,
      "ãħłãħł": 5267,
      "Ġëª¨ìķĦ": 5268,
      "ĠìĹĲìĦľ": 5269,
      "Ġnot": 5270,
      "ĠëłĮ": 5271,
      "Ġê³µì¤ĳ": 5272,
      "íķ´ìĿĺ": 5273,
      "ĠìĥĿê²¼": 5274,
      "ìĿ´ìĿµ": 5275,
      "Ġì§Ħìĭ¤": 5276,
      "ĠCl": 5277,
      "Ġìłķì°©": 5278,
      "íĨ¡": 5279,
      "Ġê·¼ë¡ľìŀĲ": 5280,
      "Ġì´Īëŀĺ": 5281,
      "ĠìĦłíĺ¸": 5282,
      "tt": 5283,
      "port": 5284,
      "ë¹Ħë¥´": 5285,
      "Ġìĺģíĸ¥ëł¥": 5286,
      "Ġê°ĢëģĶ": 5287,
      "êµ¬ìĦ±": 5288,
      "ì£¼ìĿ¼": 5289,
      "Ġê°ľíİ¸": 5290,
      "AT": 5291,
      "Ġë³ĢìĪĺ": 5292,
      "Ġ44": 5293,
      "ĠíĿ¬ìĥĿ": 5294,
      "ague": 5295,
      "ĠëĤĺë¦Ħ": 5296,
      "ìĿ´ë¸Ķ": 5297,
      "ìŀĦê¸Ī": 5298,
      "Ġê³µíķŃ": 5299,
      "Ġì·¨ìĨĮ": 5300,
      "che": 5301,
      "Ġì°Į": 5302,
      "ĠíĺĪìŀ¥": 5303,
      "ĠìĿĺë¬¸": 5304,
      "Ġë¦´": 5305,
      "Ġíķĳ": 5306,
      "ĠìĽĢì§ģìŀĦ": 5307,
      "Ġì´īì§Ħ": 5308,
      "Ġì§ģíĽĦ": 5309,
      "ĠìĦľìª½": 5310,
      "ëĭ¤ë¦¬": 5311,
      "ëł¤ìĦľ": 5312,
      "ĠëĦĪë¬´ëĤĺ": 5313,
      "æķ": 5314,
      "Ġê·ľì¹Ļ": 5315,
      "Ġ1994": 5316,
      "Ġê¹Ģìĺģ": 5317,
      "Ġê°Ģê¹ĮìĿ´": 5318,
      "ĠìķĦìĺĪ": 5319,
      "Ġëĸłìĺ¬": 5320,
      "ĠìĿ¸ë¥ĺ": 5321,
      "Ġê·¸ëŁ´": 5322,
      "Ġìĩł": 5323,
      "Ġplay": 5324,
      "Ġë°ľêµ´": 5325,
      "ĠìłĲê²Ģ": 5326,
      "ëĤľëĭ¤": 5327,
      "Ġãħĭãħĭãħĭ": 5328,
      "irst": 5329,
      "ãĢĬ": 5330,
      "ê´Ģê´ĳ": 5331,
      "Ġëĳ¥": 5332,
      "ĠAr": 5333,
      "ĠìŀħíķĻ": 5334,
      "ĠII": 5335,
      "Ġë¶ķ": 5336,
      "ree": 5337,
      "ë¡ľëĶĶíķĢ": 5338,
      "ĠìĥĿíĥľ": 5339,
      "ĠêµŃë°©": 5340,
      "io": 5341,
      "ìĺ¤ìĬ¤": 5342,
      "Ġìĭ¬íķľ": 5343,
      "Ġì¡°ìŀĳ": 5344,
      "Ġì½ĶìĬ¤": 5345,
      "ĠìĿĮë°ĺ": 5346,
      "ìĽ¨ìĿ´": 5347,
      "ĠíĺĦíĻ©": 5348,
      "ì²¨": 5349,
      "ĠíķĢ": 5350,
      "ĠìĿĺë£Įë²ķ": 5351,
      "erv": 5352,
      "Ġë¯¼ì£¼ëĭ¹": 5353,
      "ern": 5354,
      "ìĿ´íķĺ": 5355,
      "Ġ47": 5356,
      "ìŀł": 5357,
      "Ġìĺ®ê²¨": 5358,
      "Ġ##*": 5359,
      "Ġìľłíķ´": 5360,
      "æĸĩ": 5361,
      "ëıĻë¬¼": 5362,
      "ft": 5363,
      "ex": 5364,
      "ĠìĮĢ": 5365,
      "ĠìĿĺê±°": 5366,
      "Ġì§Ħìŀħ": 5367,
      "ëĵľë¦½ëĭĪëĭ¤": 5368,
      "Ġê±°ì§ĵ": 5369,
      "ìŀħëĭĪê¹Į": 5370,
      "ìĤ°ë¬¼": 5371,
      "UC": 5372,
      "ê¹ĮìļĶ": 5373,
      "ĠíĮĮê²¬": 5374,
      "Ġë¶ĢëĮĢ": 5375,
      "Ġ##^^": 5376,
      "íĸīìĤ¬": 5377,
      "ĠìĪ«ìŀĲ": 5378,
      "Ġcl": 5379,
      "Ġë¶Ħëħ¸": 5380,
      "ë¨¼ì§Ģ": 5381,
      "Ġê¸°ëıĦ": 5382,
      "Ġâĸł": 5383,
      "ç§": 5384,
      "ì»´": 5385,
      "Ġì£¼ë§Ĳ": 5386,
      "Ġíĺģëªħ": 5387,
      "ĠëĮĢë¡ľ": 5388,
      "Ġìŀ¬ë¯¸ìŀĪ": 5389,
      "ĠìµľëĮĢíķľ": 5390,
      "min": 5391,
      "ĠìłķìĭĿ": 5392,
      "ĠëĮĢì¶ľ": 5393,
      "ìī½": 5394,
      "ëŀŃ": 5395,
      "ĠíĻķë¥ł": 5396,
      "ì£¼ëħĦ": 5397,
      "ê¸°ìĤ¬": 5398,
      "ê±°ìĿĺ": 5399,
      "ĠíĥĦìĥĿ": 5400,
      "ĠëŃĶê°Ģ": 5401,
      "Ġì¤ĳìĨĮê¸°ìĹħ": 5402,
      "ë©´íĹĪì¦Ŀ": 5403,
      "ĠãĨį": 5404,
      "In": 5405,
      "ĠìĭľìĦł": 5406,
      "ĠíĻ©ìłľ": 5407,
      "ê°Ĳìłķ": 5408,
      "ĠìĽĲë¦¬": 5409,
      "Ġê¾¸ì¤ĢíŀĪ": 5410,
      "Ġìľłìļ©": 5411,
      "ire": 5412,
      "ë³ĢíĻĶ": 5413,
      "Ġìĵ°ìĿ´": 5414,
      "Ġê°ĢìĿĦ": 5415,
      "ê°Ģê²©": 5416,
      "Ġê·łíĺķ": 5417,
      "able": 5418,
      "ĠëĲľëĭ¤ëĬĶ": 5419,
      "ëıĻë§¥": 5420,
      "Ġì¶ľìŀ¥": 5421,
      "ĠíĿĶëĵ¤": 5422,
      "Ġì§ĳìķĪ": 5423,
      "ĠëªħìĿ´": 5424,
      "ĠìĪľìľĦ": 5425,
      "ìĺ¤ë¥´": 5426,
      "ë¥Ń": 5427,
      "Ġìĸ´ì©Į": 5428,
      "ì²Ńìŀ¥": 5429,
      "Ġëĭ¨ë°±": 5430,
      "ìķĦë¦¬": 5431,
      "Ġìłģìĸ´ëıĦ": 5432,
      "Ġ150": 5433,
      "Ġ##Â": 5434,
      "57": 5435,
      "ê¸ĪìĿĺ": 5436,
      "Ġë©Ķìĭľì§Ģ": 5437,
      "ìĺ¤ëĬĺ": 5438,
      "Ġì±ĦíĥĿ": 5439,
      "ëī": 5440,
      "Ġë¹Ħë¡Ŀ": 5441,
      "ount": 5442,
      "ĠìĬ¤íĤ¬": 5443,
      "2016": 5444,
      "ĠëıĦëª¨": 5445,
      "ìĿĳìĿĺ": 5446,
      "ìĭľë§Ī": 5447,
      "ĠâĹĭ": 5448,
      "ĠìĿ´ìŀ¬": 5449,
      "ìķ½ìĤ¬": 5450,
      "Ġìŀħëł¥": 5451,
      "Ġë¶ĢìĦľ": 5452,
      "ê³łë¦¬": 5453,
      "old": 5454,
      "Ġë¹ĦëĤľ": 5455,
      "ĠìĽĲìŀĲ": 5456,
      "Ġì¶ľìĤ°": 5457,
      "ĠìĭłëĿ¼": 5458,
      "ëłĪê¸°": 5459,
      "ìĸĢ": 5460,
      "ĠìĨĮëł¨": 5461,
      "ĠëĮĢë²ķìĽĲ": 5462,
      "ĠìĦ¤ë¬¸": 5463,
      "Ġì§ĢëĤľëĭ¬": 5464,
      "Ġformula": 5465,
      "ĠìłĦìłľ": 5466,
      "íĸīëıĻ": 5467,
      "Ġê³łìľł": 5468,
      "ĠLG": 5469,
      "ëĮĢìĤ¬": 5470,
      "ë¯¸ëħ¸": 5471,
      "Ġë³Ģíĺ¸ìĤ¬": 5472,
      "ĠìĹ¬ë¡ł": 5473,
      "ĠìłĢíķŃ": 5474,
      "ĠìĿ¼ìľ¼íĤ¬": 5475,
      "ĠëĮĢì²ĺ": 5476,
      "ĠìĸĳìĭĿ": 5477,
      "Ġë©ĶíĬ¸": 5478,
      "ĠìĿ´ê±´": 5479,
      "ĠìĿ´ë£¨ìĸ´ìł¸": 5480,
      "Ġì±ĶíĶ¼": 5481,
      "98": 5482,
      "Ġë©Ķëī´": 5483,
      "Ġ##ãĢĭ(": 5484,
      "Ġ1000": 5485,
      "Ġê±´ëĦĪ": 5486,
      "ì¢ħíķ©": 5487,
      "ĠìĨĮëħĦ": 5488,
      "ê·¸ëłĩ": 5489,
      "ĠìĿ´ë£¨ìĸ´ì§Ħ": 5490,
      "Ġì£¼ê±°": 5491,
      "Ġëĭ¹ìŀ¥": 5492,
      "ìĹ°êµ¬ìĽĲ": 5493,
      "Ġê¸°ìŀ¬": 5494,
      "Ġì´ĪëĮĢ": 5495,
      "Ġë°ĶìĿ´ëŁ¬ìĬ¤": 5496,
      "ëĬĶëĭ¤ê³ł": 5497,
      "ì²łëıĦ": 5498,
      "ĠëĿ¼ìĿ¸": 5499,
      "Ġë°©íķ´": 5500,
      "ìĹħë¬´": 5501,
      "ĠìĿ´ê¸°": 5502,
      "66": 5503,
      "Ġì¶©ì²Ń": 5504,
      "Ġëĭ¹ìĦł": 5505,
      "ì±ħìŀĦ": 5506,
      "Ġíĳľìłķ": 5507,
      "EC": 5508,
      "Ġê²½ìŁģëł¥": 5509,
      "íķį": 5510,
      "ĠìĿ´ê±°": 5511,
      "ìĤŃ": 5512,
      "Ġì¶ĺ": 5513,
      "ëģĹ": 5514,
      "Ńī": 5515,
      "ëłĪìĿ´ëĵľ": 5516,
      "Ġ##\",": 5517,
      "ë²¼": 5518,
      "ìłķìĭł": 5519,
      "Ġë©Ģë¦¬": 5520,
      "Ġcomp": 5521,
      "ĠëĤ´ìĿ¼": 5522,
      "2015": 5523,
      "ĠìĭľìĤ¬": 5524,
      "ìĽĮìĦľ": 5525,
      "æ´": 5526,
      "ĠìĭłìĨį": 5527,
      "ĠëĲĺëıĮ": 5528,
      "ìĭ¶": 5529,
      "Ġ##ãİĿ": 5530,
      "Ġì²´ìľ¡": 5531,
      "ĠSK": 5532,
      "ĠìĦ±ëĬ¥": 5533,
      "ê°ĢìĬ¤": 5534,
      "Ġê°ľë´ī": 5535,
      "Ġê³µìĽĲ": 5536,
      "2018": 5537,
      "ĠëĽ°ìĸ´ëĤľ": 5538,
      "ê¸°ìŀĲ": 5539,
      "ë¯¸íĦ°": 5540,
      "Ġì¥Ĳ": 5541,
      "ëķħ": 5542,
      "Ġì¢ħì¢ħ": 5543,
      "ĠìĦ¸ë¶Ģ": 5544,
      "íĺĦíĻ©": 5545,
      "ĠðŁ": 5546,
      "ĠìķĮìķĦë³´": 5547,
      "Ġìľłëŀĺ": 5548,
      "Ġê±´ë¦½": 5549,
      "Ġëĸ¨ìĸ´ì§Ħ": 5550,
      "Ġë³´ìĻĦ": 5551,
      "Ġë²ķìĿ¸": 5552,
      "ĠíĮĮìĿ´": 5553,
      "íĽĦë³´": 5554,
      "Ġ41": 5555,
      "ĠìĦ±ë¦½": 5556,
      "ĠSoc": 5557,
      "ium": 5558,
      "ĠìĭĿë¯¼": 5559,
      "ìłĦëŀµ": 5560,
      "Ġê³łê°ľ": 5561,
      "íĺģëªħ": 5562,
      "Ġê²½ê³¼": 5563,
      "Ġ2021": 5564,
      "Ġìĸ´ìļ¸": 5565,
      "ë°ĶìĿ¼": 5566,
      "ĠPl": 5567,
      "íĻĺìĿĺ": 5568,
      "ë§Īë¦¬": 5569,
      "ìŀ¬íĮĲ": 5570,
      "Ġëĭ¤ëħĢ": 5571,
      "Ġë¸ĶëŀĻ": 5572,
      "íİ¸ìĿĺ": 5573,
      "ëĺĲëĬĶ": 5574,
      "ĠëĤĺìĺ¬": 5575,
      "Ġãģ": 5576,
      "ĠìĭľìĿ¸": 5577,
      "Ġë°©ìĤ¬": 5578,
      "Ġë³´ê¸ī": 5579,
      "Ġê²¬íķ´": 5580,
      "ë¶ĢìĤ°": 5581,
      "Ġì´Ŀë¦¬": 5582,
      "Ġ1970": 5583,
      "ĠìķĪíĥĢ": 5584,
      "ĠìĦłì§Ħ": 5585,
      "ìłĪì°¨": 5586,
      "ĠìķĦëĭĻëĭĪëĭ¤": 5587,
      "ĠíıŃë°ľ": 5588,
      "Ġì´ĪìłĲ": 5589,
      "ĠìĬ¤íĥĢìĿ¼": 5590,
      "Ġë³¸ì§Ī": 5591,
      "Ġ49": 5592,
      "Ġê°Ŀê´Ģ": 5593,
      "ock": 5594,
      "ì²ĺë¶Ħ": 5595,
      "Ġëĭ¤ìĦ¯": 5596,
      "own": 5597,
      "ph": 5598,
      "ëķĮë¬¸": 5599,
      "ĠìĦłíĸī": 5600,
      "ì¦Ŀê°Ģ": 5601,
      "Ġ43": 5602,
      "Ġë³´ëĥĪ": 5603,
      "ĠíĿĲë¥´": 5604,
      "Ġê±°ëĳĲ": 5605,
      "ìķĪìłķ": 5606,
      "Ġì¡°ê¸°": 5607,
      "so": 5608,
      "Ġëį§ë¶ĻìĺĢ": 5609,
      "Ġë¨¸ë¬¼": 5610,
      "ĠìľĦìĿĺ": 5611,
      "ĠëıĻëĦ¤": 5612,
      "Ġì¹´ë©ĶëĿ¼": 5613,
      "ĠíĽĦê¸°": 5614,
      "ĠìķĦê¸°": 5615,
      "Ġíİ¼ì¹ĺ": 5616,
      "ĠíĮĲë¡Ģ": 5617,
      "ĠíķŃìĥĿ": 5618,
      "Ġëĵ¤ìĹ¬": 5619,
      "èĢ": 5620,
      "íħį": 5621,
      "ĠëĨĢìĿ´": 5622,
      "ĠìĨĮìŀ¥": 5623,
      "ìĹ¬íĸī": 5624,
      "ĠìĿ¼ì¹ĺ": 5625,
      "åŃĲ": 5626,
      "ìĺ¹": 5627,
      "Ġê¸´ìŀ¥": 5628,
      "ĠìĥĿìĦ±": 5629,
      "43": 5630,
      "íĶĶ": 5631,
      "Ġë¯¸ëĶĶìĸ´": 5632,
      "son": 5633,
      "ĠìĪĺì¤ĢìĿĺ": 5634,
      "ë©´ìĿĺ": 5635,
      "Ġê°Ħê¸°ëĬ¥": 5636,
      "ĠìĪĺê³ł": 5637,
      "éĸ": 5638,
      "Ġme": 5639,
      "ìµľê·¼": 5640,
      "ER": 5641,
      "ìŀİ": 5642,
      "ìĿ¼ë³´": 5643,
      "Ġ1992": 5644,
      "Ġres": 5645,
      "Ġ66": 5646,
      "íĪ": 5647,
      "Ġë¹ļ": 5648,
      "èª": 5649,
      "Ġìĭ¬íķĺ": 5650,
      "ê¹Ķ": 5651,
      "ë¡ľëĵľ": 5652,
      "Ġë§ĺ": 5653,
      "Ġë¡ł": 5654,
      "ìĬ¤íĥĦ": 5655,
      "Ġëĸ¼": 5656,
      "ë²Ķì£Ħ": 5657,
      "Ġê°ĲìķĪ": 5658,
      "77": 5659,
      "NA": 5660,
      "ĠìłķíĻķíŀĪ": 5661,
      "ction": 5662,
      "ĠìĽĶëĵľì»µ": 5663,
      "íĨłë¥´ë°Ķ": 5664,
      "ë©į": 5665,
      "ìĥģíĻ©": 5666,
      "ê»ı": 5667,
      "ë´Ħ": 5668,
      "Ġëĭ¤íĸī": 5669,
      "Ġì»¤ë®¤ëĭĪ": 5670,
      "ĠìĥĪë²½": 5671,
      "ĠIt": 5672,
      "Ġì¤Ħìĸ´ëĵ¤": 5673,
      "ì£¼ìĭľ": 5674,
      "ìĨĮíĮĲ": 5675,
      "ì°¨ë¡Ģ": 5676,
      "Ġìĭ±ê¸Ģ": 5677,
      "Ġë¶ĢìľĦ": 5678,
      "Ġê³µìĤ°": 5679,
      "Ġì£¼ì§Ģ": 5680,
      "ë¯¹": 5681,
      "ors": 5682,
      "ëłģ": 5683,
      "ĠìĨĮê´Ģ": 5684,
      "íĥĲ": 5685,
      "Ġíı¬ëıĦ": 5686,
      "Ġê³¼ëıĦ": 5687,
      "ŁìĪĺ": 5688,
      "ê¶¤": 5689,
      "ê°ľíĺģ": 5690,
      "ëĭĽ": 5691,
      "ĠíķĺëĿ½": 5692,
      "ĠìłĢíĺĪìķķ": 5693,
      "ĠìłĢì§Ģ": 5694,
      "ìĭ¤ìŀ¥": 5695,
      "Ġì¶¤": 5696,
      "ì¦ĿíĽĦêµ°": 5697,
      "Ġë§Īì¹¨": 5698,
      "ĠëĳĲëĵľëŁ¬": 5699,
      "ĠìĦłê³ł": 5700,
      "Ġì§ĢìĹ°": 5701,
      "ĠìķĦë¬´ëŁ°": 5702,
      "ë¥´íĭ°": 5703,
      "ëĭĺìĿĺ": 5704,
      "ê°ľìłķ": 5705,
      "ĠìľłìłĦìŀĲ": 5706,
      "ĠìŀħëĭĪëĭ¤": 5707,
      "42": 5708,
      "Ġê²°ì½Ķ": 5709,
      "ĠìĿ¼ì°į": 5710,
      "ĠìĦ¸ìĽĶ": 5711,
      "Ġì²´ëł¥": 5712,
      "88": 5713,
      "ĠìķĦëĤĺ": 5714,
      "Ġë°ĶëŀĢëĭ¤": 5715,
      "ëĲľëĭ¤ëĬĶ": 5716,
      "ìĥĿìĤ°": 5717,
      "íĶĮëŀĢíĬ¸": 5718,
      "ĺħ": 5719,
      "ìŀĲê¸Ī": 5720,
      "ëĲľëĭ¤ê³ł": 5721,
      "Ġê¸°ëıħêµĲ": 5722,
      "Ġì¹¨íķ´": 5723,
      "Ġê±´ì¡°": 5724,
      "ìļ°ëĵľ": 5725,
      "Ġë³Ģíķĺ": 5726,
      "Ġìĸ´ìłľ": 5727,
      "ĠìĹ¬ìľł": 5728,
      "Ġ1993": 5729,
      "êµ°ìļĶ": 5730,
      "Ġìĺ¤íĶĪ": 5731,
      "ĠìĿ¸ìłķë°Ľ": 5732,
      "ìķ½ìĿĺ": 5733,
      "Ġíĸĩ": 5734,
      "ìĤ¬ìĿ¼": 5735,
      "ĠíķĺëĤĺëĭĺ": 5736,
      "ë°©ìĿĺ": 5737,
      "Ġê°ľìŀħ": 5738,
      "Ġë§Įëĵ¤ìĸ´ì§Ħ": 5739,
      "ĠìĹī": 5740,
      "ĠëĭŃ": 5741,
      "ìŀĲê³ł": 5742,
      "æĻ": 5743,
      "ile": 5744,
      "ĠìĹ°ìĬµ": 5745,
      "ĠìĹĳ": 5746,
      "ìĨįëıĦ": 5747,
      "ìĭľì¦Į": 5748,
      "ê°ľìĿ¸": 5749,
      "Ġìī¬ìļ´": 5750,
      "åŁ": 5751,
      "ĠíĴįë¶Ģ": 5752,
      "ĠìĿ´ëĩ¨": 5753,
      "íĬ¸ë¥¨": 5754,
      "eb": 5755,
      "Ġë³´ìĬ¤": 5756,
      "ë¦¬íķĻ": 5757,
      "Ġë¿Į": 5758,
      "gh": 5759,
      "Ġpr": 5760,
      "ë§ĪìŀĲ": 5761,
      "íĻĶìĿĺ": 5762,
      "ĠìķĦíĶĦë¦¬ì¹´": 5763,
      "Ġì§Ŀ": 5764,
      "íķ©ìĿĺ": 5765,
      "Ġì¶ķìłľ": 5766,
      "Ġë¡¯ëį°": 5767,
      "Ġìĸ´ì°Į": 5768,
      "2014": 5769,
      "Ġìĸµìłľìłľ": 5770,
      "Ġìŀ¥ê¸°ê°Ħ": 5771,
      "ê³¤ëŀĢ": 5772,
      "ìĿ´íĽĦ": 5773,
      "ĠÂ": 5774,
      "ĠëıĮëł¤": 5775,
      "ĠìłĦëĤ¨": 5776,
      "ìľĪ": 5777,
      "ì´Īëĵ±": 5778,
      "Ġ52": 5779,
      "ëĬĶëį°ëıĦ": 5780,
      "Ġê´ĳë²ĶìľĦ": 5781,
      "Ġë°ľíľĺ": 5782,
      "ë¦¬ìĬ¤íĬ¸": 5783,
      "Ġëĵ¤ìĸ´ê°Ķ": 5784,
      "ìļĶìĿ¸": 5785,
      "Ġê·¸ëŀ¬": 5786,
      "ĠëŁ¼": 5787,
      "ãĦ": 5788,
      "Ġíķ¸": 5789,
      "ĠìĤ¬ê¸°": 5790,
      "Ġê±¸ë¦¬": 5791,
      "íĸĪìĹĪ": 5792,
      "Ġ##âī": 5793,
      "Ġì±ĦëĦĲ": 5794,
      "ì§ĢëĮĢ": 5795,
      "ĠëĤĺìĦ°": 5796,
      "ĠìķĶë¡ľëĶĶíķĢ": 5797,
      "Ġìĭ¸ìĽĢ": 5798,
      "ĠíĬ¸ëŁ¼íĶĦ": 5799,
      "Ġì§Ģëªħ": 5800,
      "ĠìĨĮì¤ĳ": 5801,
      "åŃ¸": 5802,
      "ê¸°ë¡Ŀ": 5803,
      "oh": 5804,
      "ĠìķĦìī¬": 5805,
      "Ġë³´ìĹ¬ì¤Ģëĭ¤": 5806,
      "ëī´ìĬ¤": 5807,
      "Ġë¹Ļ": 5808,
      "ëįĶëĿ¼êµ¬ìļĶ": 5809,
      "ëłĲ": 5810,
      "íĨłë¡Ŀ": 5811,
      "ìĦ¤ìĿĺ": 5812,
      "íĦ°ë¦¬": 5813,
      "ĠíĪ¬ëªħ": 5814,
      "ĠëıĦëĭ¬": 5815,
      "ëª¸": 5816,
      "ìĹĲìĦľë¶ĢíĦ°": 5817,
      "ĠíĮĮìĿ¼": 5818,
      "Ġê°ĸì¶ĺ": 5819,
      "ĠSh": 5820,
      "ĠìłĪë°ĺ": 5821,
      "ĠëĤĺëī": 5822,
      "Ġìĭ¤ìĪĺ": 5823,
      "Ġê°Ģëł¤ìĽĢ": 5824,
      "ìħī": 5825,
      "ĠìĿ¸ìĽĲ": 5826,
      "Ġê°ľë°©": 5827,
      "ìŀ¥ê¸°": 5828,
      "Ġì¶ľìĥĿ": 5829,
      "ĠíħĶëłĪ": 5830,
      "Ġë³¸ëŀĺ": 5831,
      "ìĺģìĸ´": 5832,
      "58": 5833,
      "Ġìĺ¤ë¸Į": 5834,
      "ĠìĨĮíĶĦíĬ¸": 5835,
      "ĠÎ": 5836,
      "Ġì½Ķë¡ľëĤĺ": 5837,
      "Ġ##ï½¥": 5838,
      "Ġìłģëĭ¹": 5839,
      "ĠìŀĲìĤ°": 5840,
      "ìĥģíĴĪ": 5841,
      "éĩĳ": 5842,
      "Ġë§¤ìŀ¥": 5843,
      "ìĹ°íŀĪ": 5844,
      "ìĻĢìĦľ": 5845,
      "Ġìĸ´ë¥¸": 5846,
      "Ġëªħìĭľ": 5847,
      "Ġëĭ¥": 5848,
      "ĠíĮĮíĬ¸": 5849,
      "Ġ02": 5850,
      "ĠëĬĲëĤĦ": 5851,
      "ìĿĺìķ½íĴĪ": 5852,
      "Ġë¹Ħíķĺ": 5853,
      "ĠìĪľìĦľ": 5854,
      "Ġíķ´ìķĪ": 5855,
      "Ġìľłê¸°": 5856,
      "ĠíĺĪëĭ¹": 5857,
      "Ġëĭ¤ìĪĺ": 5858,
      "Ġë³ĦëıĦ": 5859,
      "Ġíģ´ëŁ½": 5860,
      "oy": 5861,
      "Ġìĺ¤ìĬ¤íĬ¸": 5862,
      "ĠíĿĶíķĺ": 5863,
      "ìķ¼ë§Ī": 5864,
      "Ġì§Ģì¶ľ": 5865,
      "íĺĪëĭ¹": 5866,
      "Ġì§ķìĹŃ": 5867,
      "ĠìŀĲìķĦ": 5868,
      "ool": 5869,
      "Ġíķłë¨¸ëĭĪ": 5870,
      "ĠíıĲìĩĦ": 5871,
      "Ġê±°ëĵŃ": 5872,
      "åĮ": 5873,
      "ì§ĳëĭ¨": 5874,
      "ĠìķĦìĿ´íħľ": 5875,
      "íķĻê³¼": 5876,
      "ĠìĬ¤ë§ĪíĬ¸íı°": 5877,
      "ê³µë¬´ìĽĲ": 5878,
      "ìĨĮìĨ¡": 5879,
      "Ġìĺ¨ëıĦ": 5880,
      "Ġë·": 5881,
      "Ł³": 5882,
      "ë§Ĳë¡ľ": 5883,
      "Ġë´īìĤ¬": 5884,
      "ìŀ¬ëĭ¨": 5885,
      "Ġíı°": 5886,
      "ĠìĿĺíķ´ìĦľ": 5887,
      "ì§ĢìĪĺ": 5888,
      "ëĥĲê³ł": 5889,
      "ĠìŁģ": 5890,
      "ĠëĤ¨ë¶Ģ": 5891,
      "41": 5892,
      "ë¿": 5893,
      "ìĨĮì¦Ŀ": 5894,
      "Ġ;": 5895,
      "ìĭłì²Ń": 5896,
      "ìĤ°ìĹ¼": 5897,
      "Ġíķ´ìĸĳ": 5898,
      "Ġìĭłìļ©": 5899,
      "ĠìĿ´ëªħ": 5900,
      "ĠìĥģìĹħ": 5901,
      "ìĦ¸íĬ¸": 5902,
      "ĠìĪľíĻĺ": 5903,
      "az": 5904,
      "ĠëĥĪ": 5905,
      "ĠìĤ¬ëĿ¼ì§Ģ": 5906,
      "Ġì«ĵ": 5907,
      "Ġë¶Ģëĭ¹": 5908,
      "Ġì¡°íļĮ": 5909,
      "¼ìĨĲ": 5910,
      "ìŀĲìľł": 5911,
      "ĠìĪľìĪĺ": 5912,
      "Ġíľ´ëĮĢ": 5913,
      "form": 5914,
      "ĠìłĦëĿ¼": 5915,
      "Ġìłĳì´ī": 5916,
      "ëįĶëĿ¼ê³ł": 5917,
      "íķľì§Ģ": 5918,
      "Ġì§ĦíĻĶ": 5919,
      "ì¡°ì¹ĺ": 5920,
      "ĠëıĻìĽĲ": 5921,
      "ì¼ĢìĿ´ìħĺ": 5922,
      "ë£¨ìĬ¤": 5923,
      "Ġíı¬ìŀ¥": 5924,
      "2011": 5925,
      "ĠìĬ¤ìľĦ": 5926,
      "ĠìŀĲìĭĿ": 5927,
      "Ġëª©ë¡Ŀ": 5928,
      "æµ": 5929,
      "ĠëĮĢë³Ģ": 5930,
      "ally": 5931,
      "ìĿ´ëŁ¬": 5932,
      "ĠëĮĢì¡°": 5933,
      "Ġíĩ´ì§ģ": 5934,
      "åľĭ": 5935,
      "ìĭ¤íĹĺ": 5936,
      "Ġë¹łì§Ģ": 5937,
      "2012": 5938,
      "Ġë¬´ëł¥": 5939,
      "Ġë³µê·Ģ": 5940,
      "ĠíĮ¨ë°°": 5941,
      "ì¹¼ë¥¨": 5942,
      "êµĲìĪĺ": 5943,
      "ail": 5944,
      "Ġì¢ħìĿ´": 5945,
      "ë°¤": 5946,
      "ĠìµľìĦł": 5947,
      "Ġ1991": 5948,
      "ëģ¼ë¦¬": 5949,
      "éĿ": 5950,
      "ìĹħìŀĲ": 5951,
      "ìĬ¤íĤ¤": 5952,
      "Ġëª¨íĺķ": 5953,
      "ĠìĿ´ìĦ±": 5954,
      "ĠëĤ´ê²Į": 5955,
      "Ġë©ľ": 5956,
      "Ġê·¼ëį°": 5957,
      "ë£¸": 5958,
      "ĠìµľìĨĮíķľ": 5959,
      "Ġíĳľë©´": 5960,
      "ID": 5961,
      "Ġë¯¸ì¹ľ": 5962,
      "ĠíĥĢëĭ¹": 5963,
      "ë°ľíĸī": 5964,
      "ite": 5965,
      "ĠìĹ°ê·¹": 5966,
      "ĠìĹĶì§Ħ": 5967,
      "Ġì°½ìĿĺ": 5968,
      "ìĿ´ë²Ħ": 5969,
      "Ġíĸīíķĺ": 5970,
      "Ġì£½ìĿ´": 5971,
      "ade": 5972,
      "ìĿ¸ë¯¼": 5973,
      "79": 5974,
      "Ġêµ¬ìĦ±ìĽĲ": 5975,
      "ìĸ´ì§Ī": 5976,
      "Ġê¹¨ëģĹ": 5977,
      "lt": 5978,
      "ĠìłķìĽĲ": 5979,
      "ìį": 5980,
      "ĠìĤ¬ë²ķ": 5981,
      "Ġê°ķìĹ°": 5982,
      "Ġì¤ĳë³µ": 5983,
      "ĠìĦ±ìļ°": 5984,
      "ĠìĹĲíĶ¼": 5985,
      "ild": 5986,
      "ĠëĤ¼": 5987,
      "ĠìķĪëĤ´": 5988,
      "ĠëĿ½": 5989,
      "2013": 5990,
      "ĠìĪĺìĽĲ": 5991,
      "ĠíĻĶë©´": 5992,
      "¥¬": 5993,
      "ĠêµŃë¬´": 5994,
      "ëĭ¹íķĺ": 5995,
      "ĠëĤłìĶ¨": 5996,
      "ĠëıĦì¶ľ": 5997,
      "Ġíĺķìłľ": 5998,
      "Ġìĭ¸ìļ°": 5999,
      "Ġëĸ¨ìĸ´ìł¸": 6000,
      "ĠíŀĲ": 6001,
      "ëłĪìĬ¤íħĮ": 6002,
      "ĠìĿ´ìĽĥ": 6003,
      "Ġìĭłíĺ¸": 6004,
      "2010": 6005,
      "ĠìķĮëłĪë¥´ê¸°": 6006,
      "ìĿ´ì¦Ī": 6007,
      "Ġìĸĳìĥģ": 6008,
      "Ġë¶ĪêµĲ": 6009,
      "Ġë°©ìĺģ": 6010,
      "ìķ¼ë§Ĳë¡ľ": 6011,
      "land": 6012,
      "ĠìĤ½": 6013,
      "ìĤ¬ëĭ¨": 6014,
      "íĶĦëłĪ": 6015,
      "ê°ĲìĨĮ": 6016,
      "ĠìĭłìĥĿ": 6017,
      "ĠìĨĮìļĶ": 6018,
      "ĠìĿ¼ìĽĲ": 6019,
      "ĠCom": 6020,
      "ĠAs": 6021,
      "Ġì§Ģíĳľ": 6022,
      "ì¤ĳìĿĺ": 6023,
      "Ġë³´ê³łìĦľ": 6024,
      "TA": 6025,
      "ĠëıħíĬ¹": 6026,
      "Ġíı¬ìĿ¸íĬ¸": 6027,
      "ĠìĦ¤ëĵĿ": 6028,
      "ĠìĨĮëħĢ": 6029,
      "Ġëį´": 6030,
      "ìķ½êµŃ": 6031,
      "Ġíİ¸ì§Ģ": 6032,
      "ëĶĶìķĦ": 6033,
      "íķŃê³µ": 6034,
      "Ġë©ĺ": 6035,
      "ĠëĮĢë¦½": 6036,
      "ĠêµĲíĻĺ": 6037,
      "ĠìĥģìľĦ": 6038,
      "Ġê°¤": 6039,
      "Ġhave": 6040,
      "ĠìĭľìľĦ": 6041,
      "ĠìĭľíĤ¤": 6042,
      "Ġê³µëıĻì²´": 6043,
      "íĭ°ëĭĮ": 6044,
      "ëłĪìķĦíĭ°ëĭĮ": 6045,
      "ĠìĹ°ëĮĢ": 6046,
      "ë¥ľ": 6047,
      "73": 6048,
      "ĠëĮĢë¦¬": 6049,
      "ìĿ´ëŀĳ": 6050,
      "ah": 6051,
      "ì¥Ĳ": 6052,
      "ook": 6053,
      "ëĶľ": 6054,
      "Ġë¼Ī": 6055,
      "íĽĪëł¨": 6056,
      "ì¦Ŀìĥģ": 6057,
      "ëĭ«": 6058,
      "ì¶ķêµ¬": 6059,
      "ĠìľłìĤ°": 6060,
      "Ġê²¹": 6061,
      "Ġì¹¼ëŁ¼": 6062,
      "ì§Ħë£Į": 6063,
      "ĠìľĪ": 6064,
      "Ġìĸ´ê¹¨": 6065,
      "ĠëĵľëŁ¬ëĤ´": 6066,
      "ê±´ì¶ķ": 6067,
      "69": 6068,
      "Ġë¡ľë´ĩ": 6069,
      "åħ¬": 6070,
      "Ġì¶©ëıĮ": 6071,
      "ìĨĮëĵľ": 6072,
      "Ġìĺ¤ë¥¸ìª½": 6073,
      "ëĵ±ê¸ī": 6074,
      "Ġê°Ģíķ´": 6075,
      "éĢ": 6076,
      "Ġê°Ģë¬¸": 6077,
      "ãħľ": 6078,
      "ëłĪìĬ¤íħĮë¡¤": 6079,
      "Ġë±": 6080,
      "Ġë°ĺë°ľ": 6081,
      "ìŀĲëıĻì°¨": 6082,
      "ìĩł": 6083,
      "Ġêµ¬íĺĦ": 6084,
      "ĠíĪ¬ìŀĲìŀĲ": 6085,
      "Ġì²ĺë¶Ħ": 6086,
      "Ġë°ĽìķĦëĵ¤ìĿ´": 6087,
      "ĠêµĲíĻ©": 6088,
      "Ġus": 6089,
      "ê³µëıĻ": 6090,
      "ë¯¸ëĤĺ": 6091,
      "Ġë²ķìķĪ": 6092,
      "Ġë³´ìķĪ": 6093,
      "ëĭĪìĸ´": 6094,
      "Ġìĸ¸ìłľëĤĺ": 6095,
      "ĠìŀĳìłĦ": 6096,
      "Ġëĺĳê°Ļ": 6097,
      "Ġìĭłë¶Ħ": 6098,
      "íĮ©": 6099,
      "Ġê¸īê²©": 6100,
      "Ġê²½ë¡ľ": 6101,
      "ë©Ķë¦¬ì¹´": 6102,
      "ĠëĲľëĭ¤ê³ł": 6103,
      "ĠíĻĶëł¤": 6104,
      "ìĿ¸ëł¥": 6105,
      "ĠëĤĺíĥĢëĤľëĭ¤": 6106,
      "ê²¸": 6107,
      "ĠìĦłë³´": 6108,
      "ë§ĪìĬ¤": 6109,
      "ĠíĽĮë¥Ń": 6110,
      "Ġë§ĮëĤľ": 6111,
      "ĠëĵľëŁ¬ëĤĺ": 6112,
      "Ġê´Ģíķł": 6113,
      "ë¥´ëª¬": 6114,
      "ĠíĬ¹ìĿ´": 6115,
      "Ġì§Ģíĸ¥": 6116,
      "ĠìľĦìĽĲíļĮ": 6117,
      "ĠìĺĪìĪĺ": 6118,
      "ĠíĪ¬ìŀĲê°Ģ": 6119,
      "Ġìĭ¬ìĿĺ": 6120,
      "ĠìłĢìŀĲ": 6121,
      "ĠìĻ¼ìª½": 6122,
      "Ġë²Įê¸Ī": 6123,
      "Ġê´Ģê°Ŀ": 6124,
      "ìłĢì¶ķ": 6125,
      "Ġì§Ģíķĺì²ł": 6126,
      "SA": 6127,
      "ê¼¬": 6128,
      "ĠëłĪë²¨": 6129,
      "oll": 6130,
      "Ġëª¨ìŀĲ": 6131,
      "ìĻ¸ìĿĺ": 6132,
      "ĠìĿĮìĦ±": 6133,
      "ĠPro": 6134,
      "Ġë¶Īë§Į": 6135,
      "Ġê°Ħê²©": 6136,
      "64": 6137,
      "ĠëĤĺê°Ī": 6138,
      "ĠìłĦíĺķ": 6139,
      "ll": 6140,
      "ìĪŃ": 6141,
      "Ġì´īêµ¬": 6142,
      "Ġëª¨ë°ĶìĿ¼": 6143,
      "ì½Ķìĺ¬": 6144,
      "Ġë¬´ê²Į": 6145,
      "ĠEn": 6146,
      "ĠìºĲëĤĺëĭ¤": 6147,
      "ĠíķľêµŃìĸ´": 6148,
      "ĠëĶľ": 6149,
      "ëħ¹": 6150,
      "der": 6151,
      "ĠíĴįê²½": 6152,
      "ĠêµĲì°¨": 6153,
      "Ġìŀ¥ìĭĿ": 6154,
      "ĠíĽĦìĽĲ": 6155,
      "ĠíķĺìľĦ": 6156,
      "ìĦ±ìŀ¥": 6157,
      "ëĬ¬": 6158,
      "Ġì§ģìłĦ": 6159,
      "Ġìĭ¤ë¬´": 6160,
      "Ġì£¼ìĨĮ": 6161,
      "ìŀĲë§ĪìŀĲ": 6162,
      "ĠëıĦì¤ĳ": 6163,
      "ëł·": 6164,
      "ĠìĪĺìĪĺ": 6165,
      "ĠìĿµìĪĻ": 6166,
      "ëĿ¼ìļ´ëĵľ": 6167,
      "ê³±": 6168,
      "ĠíķłìĿ¸": 6169,
      "ĠìĦľìĸĳ": 6170,
      "89": 6171,
      "å¿": 6172,
      "ìļĶìĨĮ": 6173,
      "ĠëģĬìŀĦ": 6174,
      "íĨ±": 6175,
      "ìłĦê±°": 6176,
      "Ġëĵ¯íķľ": 6177,
      "ìĿ¼ë°ĺ": 6178,
      "ĠìĿ´ìĬ¹": 6179,
      "ĠìĭĿëĭ¹": 6180,
      "Ġëª¨ìŀĦ": 6181,
      "Ġãħİãħİ": 6182,
      "ĠíĮ¨íĦ´": 6183,
      "Ġìľ¤ë¦¬": 6184,
      "Ġwhich": 6185,
      "èĩ": 6186,
      "Ġê³łìľĦ": 6187,
      "Ġë°´ëĵľ": 6188,
      "ĠëĮĢì²´ë¡ľ": 6189,
      "ìĺ¨ëĭ¤": 6190,
      "59": 6191,
      "ê³½": 6192,
      "ton": 6193,
      "Ġê³łìĨį": 6194,
      "Ġë¶ĦëªħíŀĪ": 6195,
      "Ġì§Ħë¡ľ": 6196,
      "Ġê³łëĵ±": 6197,
      "ĠìŀħìĽĲ": 6198,
      "Ġë§¥ëĿ½": 6199,
      "ĠëģĪ": 6200,
      "ĠëıĦë§Ŀ": 6201,
      "Ġë³´íİ¸": 6202,
      "íŀĺ": 6203,
      "Ġê¼¼": 6204,
      "Ġint": 6205,
      "ĠíĨµìĥģ": 6206,
      "ê³µìĿĺ": 6207,
      "ëĭ¤ë³´": 6208,
      "ë²łìĿ´": 6209,
      "Ġë°Ķê¿Ķ": 6210,
      "ĠìĤ´ìĿ¸": 6211,
      "Ġ1960": 6212,
      "CA": 6213,
      "ĠíĭĪ": 6214,
      "Ġìķ½ìĤ¬ë²ķ": 6215,
      "ê¶Ĳ": 6216,
      "ĠíķľêµŃìĿ¸": 6217,
      "ĠSBS": 6218,
      "ìŀĲìĤ°": 6219,
      "ĠêµŃíĨł": 6220,
      "Ġì¦Ŀê¶Į": 6221,
      "Ġìĺ¤ëŀ«": 6222,
      "Ġë¦½": 6223,
      "Ġëį°ìĿ´": 6224,
      "Ġìłĸ": 6225,
      "íķ´ìł¸": 6226,
      "ç¤": 6227,
      "Ġ]": 6228,
      "Ġë¶Ģì§Ģ": 6229,
      "ìĥĿìĿĺ": 6230,
      "ê·¼íĺľ": 6231,
      "Ġìŀ¬ë°°": 6232,
      "ëģĪ": 6233,
      "ĠëĤĺìĦľ": 6234,
      "Ġê¸°ë¶Ģ": 6235,
      "Ġëģĵ": 6236,
      "Ġì¡°ìļ©": 6237,
      "ëĴ¤": 6238,
      "ê°ľìĦ¤": 6239,
      "ĠëĮĢìĻ¸": 6240,
      "ĠâĢĻ": 6241,
      "ĠìłĳìĪĺ": 6242,
      "ath": 6243,
      "Ġê·¸ëŁ¼ìĹĲëıĦ": 6244,
      "RA": 6245,
      "Ġê³łíĸ¥": 6246,
      "Ġthis": 6247,
      "76": 6248,
      "æ²": 6249,
      "ĠìŀĳëıĻ": 6250,
      "ë¬´ê¸°": 6251,
      "èĪ": 6252,
      "Ġêµ¬ë³Ħ": 6253,
      "Ġíķ©ê²©": 6254,
      "ĠìľłìłĢ": 6255,
      "SS": 6256,
      "ë©Ķëĭ¬": 6257,
      "ëĨĢìĿ´": 6258,
      "Ġê·¸ê±¸": 6259,
      "ould": 6260,
      "ì§ĢëĬ¥": 6261,
      "Ġê°ĢìĤ¬": 6262,
      "ì¡°ìłĪ": 6263,
      "ë§ĪëĶĶ": 6264,
      "ĠëĤ¨ê¸°": 6265,
      "ĠìķĦìļ¸ëŁ¬": 6266,
      "ê·ľì¹Ļ": 6267,
      "ëĵĢ": 6268,
      "Ġì¤Ħê¸°": 6269,
      "ìĭŃëĭĪê¹Į": 6270,
      "ĠìĪĺë°ĺ": 6271,
      "ìĿ´ëŁ°": 6272,
      "Ġê³łêµ¬": 6273,
      "Ġê¸°íĽĦ": 6274,
      "56": 6275,
      "ëĮĢìŀ¥": 6276,
      "ĠëĮĵê¸Ģ": 6277,
      "ĠìĥĿìķł": 6278,
      "Ġìĺ¬ëł¸": 6279,
      "íķĺìĿ´": 6280,
      "Ġêº¼ëĤ´": 6281,
      "ĠìŀĲë°ľ": 6282,
      "Ġíİ´": 6283,
      "Ġìĥģê´ĢìĹĨìĿ´": 6284,
      "ìłľìķĪ": 6285,
      "Ġì¶©ì¡±": 6286,
      "ëįľëŀĢëĵľ": 6287,
      "Ġ120": 6288,
      "Ġê°Ģìĥģ": 6289,
      "ëŁ¬ìĽĢ": 6290,
      "ĠíıĲê¸°": 6291,
[...]
